const unsigned char cnn_model[] = {
  0x20, 0x00, 0x00, 0x00, 0x54, 0x46, 0x4c, 0x33, 0x00, 0x00, 0x00, 0x00,
  0x14, 0x00, 0x20, 0x00, 0x1c, 0x00, 0x18, 0x00, 0x14, 0x00, 0x10, 0x00,
  0x0c, 0x00, 0x00, 0x00, 0x08, 0x00, 0x04, 0x00, 0x14, 0x00, 0x00, 0x00,
  0x1c, 0x00, 0x00, 0x00, 0x8c, 0x00, 0x00, 0x00, 0x0c, 0x01, 0x00, 0x00,
  0x58, 0x17, 0x00, 0x00, 0x68, 0x17, 0x00, 0x00, 0xcc, 0x2d, 0x00, 0x00,
  0x03, 0x00, 0x00, 0x00, 0x01, 0x00, 0x00, 0x00, 0x04, 0x00, 0x00, 0x00,
  0xfa, 0xe6, 0xff, 0xff, 0x0c, 0x00, 0x00, 0x00, 0x1c, 0x00, 0x00, 0x00,
  0x3c, 0x00, 0x00, 0x00, 0x0f, 0x00, 0x00, 0x00, 0x73, 0x65, 0x72, 0x76,
  0x69, 0x6e, 0x67, 0x5f, 0x64, 0x65, 0x66, 0x61, 0x75, 0x6c, 0x74, 0x00,
  0x01, 0x00, 0x00, 0x00, 0x04, 0x00, 0x00, 0x00, 0x68, 0xff, 0xff, 0xff,
  0x13, 0x00, 0x00, 0x00, 0x04, 0x00, 0x00, 0x00, 0x08, 0x00, 0x00, 0x00,
  0x6f, 0x75, 0x74, 0x70, 0x75, 0x74, 0x5f, 0x30, 0x00, 0x00, 0x00, 0x00,
  0x01, 0x00, 0x00, 0x00, 0x04, 0x00, 0x00, 0x00, 0x7e, 0xe8, 0xff, 0xff,
  0x04, 0x00, 0x00, 0x00, 0x0c, 0x00, 0x00, 0x00, 0x6b, 0x65, 0x72, 0x61,
  0x73, 0x5f, 0x74, 0x65, 0x6e, 0x73, 0x6f, 0x72, 0x00, 0x00, 0x00, 0x00,
  0x03, 0x00, 0x00, 0x00, 0x5c, 0x00, 0x00, 0x00, 0x2c, 0x00, 0x00, 0x00,
  0x04, 0x00, 0x00, 0x00, 0xb8, 0xff, 0xff, 0xff, 0x17, 0x00, 0x00, 0x00,
  0x04, 0x00, 0x00, 0x00, 0x13, 0x00, 0x00, 0x00, 0x43, 0x4f, 0x4e, 0x56,
  0x45, 0x52, 0x53, 0x49, 0x4f, 0x4e, 0x5f, 0x4d, 0x45, 0x54, 0x41, 0x44,
  0x41, 0x54, 0x41, 0x00, 0xdc, 0xff, 0xff, 0xff, 0x16, 0x00, 0x00, 0x00,
  0x04, 0x00, 0x00, 0x00, 0x13, 0x00, 0x00, 0x00, 0x6d, 0x69, 0x6e, 0x5f,
  0x72, 0x75, 0x6e, 0x74, 0x69, 0x6d, 0x65, 0x5f, 0x76, 0x65, 0x72, 0x73,
  0x69, 0x6f, 0x6e, 0x00, 0x08, 0x00, 0x0c, 0x00, 0x08, 0x00, 0x04, 0x00,
  0x08, 0x00, 0x00, 0x00, 0x15, 0x00, 0x00, 0x00, 0x04, 0x00, 0x00, 0x00,
  0x13, 0x00, 0x00, 0x00, 0x6d, 0x69, 0x6e, 0x5f, 0x72, 0x75, 0x6e, 0x74,
  0x69, 0x6d, 0x65, 0x5f, 0x76, 0x65, 0x72, 0x73, 0x69, 0x6f, 0x6e, 0x00,
  0x18, 0x00, 0x00, 0x00, 0x48, 0x16, 0x00, 0x00, 0x40, 0x16, 0x00, 0x00,
  0x2c, 0x16, 0x00, 0x00, 0x10, 0x16, 0x00, 0x00, 0xfc, 0x15, 0x00, 0x00,
  0xe4, 0x15, 0x00, 0x00, 0xac, 0x15, 0x00, 0x00, 0x1c, 0x13, 0x00, 0x00,
  0x0c, 0x12, 0x00, 0x00, 0xfc, 0x01, 0x00, 0x00, 0x6c, 0x01, 0x00, 0x00,
  0xfc, 0x00, 0x00, 0x00, 0xf4, 0x00, 0x00, 0x00, 0xec, 0x00, 0x00, 0x00,
  0xe4, 0x00, 0x00, 0x00, 0xdc, 0x00, 0x00, 0x00, 0xd4, 0x00, 0x00, 0x00,
  0xcc, 0x00, 0x00, 0x00, 0xc4, 0x00, 0x00, 0x00, 0xbc, 0x00, 0x00, 0x00,
  0xb4, 0x00, 0x00, 0x00, 0x94, 0x00, 0x00, 0x00, 0x74, 0x00, 0x00, 0x00,
  0x04, 0x00, 0x00, 0x00, 0x82, 0xe9, 0xff, 0xff, 0x04, 0x00, 0x00, 0x00,
  0x60, 0x00, 0x00, 0x00, 0x0c, 0x00, 0x00, 0x00, 0x08, 0x00, 0x0e, 0x00,
  0x08, 0x00, 0x04, 0x00, 0x08, 0x00, 0x00, 0x00, 0x10, 0x00, 0x00, 0x00,
  0x28, 0x00, 0x00, 0x00, 0x00, 0x00, 0x06, 0x00, 0x08, 0x00, 0x04, 0x00,
  0x06, 0x00, 0x00, 0x00, 0x04, 0x00, 0x00, 0x00, 0x01, 0x00, 0x00, 0x00,
  0xeb, 0x03, 0x00, 0x00, 0x0c, 0x00, 0x18, 0x00, 0x14, 0x00, 0x10, 0x00,
  0x0c, 0x00, 0x04, 0x00, 0x0c, 0x00, 0x00, 0x00, 0xcd, 0xd1, 0x7d, 0x35,
  0xfc, 0xb5, 0x6d, 0x07, 0x02, 0x00, 0x00, 0x00, 0x02, 0x00, 0x00, 0x00,
  0x04, 0x00, 0x00, 0x00, 0x06, 0x00, 0x00, 0x00, 0x32, 0x2e, 0x31, 0x38,
  0x2e, 0x30, 0x00, 0x00, 0xee, 0xe9, 0xff, 0xff, 0x04, 0x00, 0x00, 0x00,
  0x10, 0x00, 0x00, 0x00, 0x00, 0x00, 0x00, 0x00, 0x00, 0x00, 0x00, 0x00,
  0x00, 0x00, 0x00, 0x00, 0x00, 0x00, 0x00, 0x00, 0x0a, 0xea, 0xff, 0xff,
  0x04, 0x00, 0x00, 0x00, 0x10, 0x00, 0x00, 0x00, 0x31, 0x2e, 0x31, 0x34,
  0x2e, 0x30, 0x00, 0x00, 0x00, 0x00, 0x00, 0x00, 0x00, 0x00, 0x00, 0x00,
  0x04, 0xd5, 0xff, 0xff, 0x08, 0xd5, 0xff, 0xff, 0x0c, 0xd5, 0xff, 0xff,
  0x10, 0xd5, 0xff, 0xff, 0x14, 0xd5, 0xff, 0xff, 0x18, 0xd5, 0xff, 0xff,
  0x1c, 0xd5, 0xff, 0xff, 0x20, 0xd5, 0xff, 0xff, 0x24, 0xd5, 0xff, 0xff,
  0x4a, 0xea, 0xff, 0xff, 0x04, 0x00, 0x00, 0x00, 0x60, 0x00, 0x00, 0x00,
  0xd4, 0x7f, 0x11, 0xd5, 0x7f, 0x39, 0x6d, 0x7f, 0xc6, 0x9c, 0x81, 0xf9,
  0x47, 0x51, 0x81, 0x81, 0xdc, 0x30, 0x18, 0x32, 0x81, 0x9d, 0x81, 0xd2,
  0x22, 0x6b, 0x7f, 0x81, 0x60, 0x52, 0x81, 0x05, 0xff, 0x81, 0xd0, 0x33,
  0x81, 0xff, 0xdf, 0xac, 0x81, 0xf2, 0x81, 0x8c, 0x00, 0x29, 0x81, 0x1c,
  0x96, 0x81, 0x36, 0x27, 0x81, 0x08, 0xa5, 0x7f, 0x4f, 0x81, 0xf6, 0xfb,
  0x52, 0x49, 0x81, 0x87, 0x7f, 0x8c, 0xcc, 0x81, 0xe8, 0x7f, 0x58, 0x3a,
  0x1e, 0x10, 0x81, 0xaa, 0xe3, 0x81, 0x83, 0x81, 0xf7, 0xf8, 0x0a, 0x81,
  0x7f, 0x08, 0xf3, 0x81, 0x8a, 0xf4, 0x6f, 0x7f, 0xf3, 0x7f, 0x50, 0x5e,
  0xb6, 0xea, 0xff, 0xff, 0x04, 0x00, 0x00, 0x00, 0x80, 0x00, 0x00, 0x00,
  0x69, 0x0d, 0x00, 0x00, 0x02, 0x27, 0x00, 0x00, 0xc5, 0x0b, 0x00, 0x00,
  0xdf, 0xfe, 0xff, 0xff, 0x40, 0xfc, 0xff, 0xff, 0x6a, 0x00, 0x00, 0x00,
  0x5a, 0x3a, 0x00, 0x00, 0xf1, 0xff, 0xff, 0xff, 0x8c, 0x0a, 0x00, 0x00,
  0xde, 0x1d, 0x00, 0x00, 0x4d, 0xff, 0xff, 0xff, 0x79, 0x00, 0x00, 0x00,
  0xc3, 0xfe, 0xff, 0xff, 0x90, 0x01, 0x00, 0x00, 0x9c, 0xfe, 0xff, 0xff,
  0xe0, 0xff, 0xff, 0xff, 0x1f, 0x0e, 0x00, 0x00, 0xd8, 0xff, 0xff, 0xff,
  0x45, 0x15, 0x00, 0x00, 0xf5, 0x03, 0x00, 0x00, 0x3b, 0xfc, 0xff, 0xff,
  0x79, 0xe9, 0xff, 0xff, 0xa4, 0xfe, 0xff, 0xff, 0xb8, 0x10, 0x00, 0x00,
  0xf3, 0x2d, 0x00, 0x00, 0x95, 0x09, 0x00, 0x00, 0x6b, 0xfd, 0xff, 0xff,
  0x3d, 0xfc, 0xff, 0xff, 0x13, 0x01, 0x00, 0x00, 0x30, 0xfe, 0xff, 0xff,
  0xf4, 0x02, 0x00, 0x00, 0xd8, 0x0a, 0x00, 0x00, 0x42, 0xeb, 0xff, 0xff,
  0x04, 0x00, 0x00, 0x00, 0x00, 0x10, 0x00, 0x00, 0xf2, 0x00, 0xfa, 0x18,
  0xfe, 0x04, 0x05, 0xdd, 0x06, 0x00, 0x09, 0x05, 0xd2, 0x02, 0x00, 0x06,
  0x02, 0x0f, 0xfd, 0x0c, 0xf4, 0xfa, 0xd0, 0x04, 0x0a, 0xf4, 0xfc, 0xed,
  0x03, 0xbb, 0xfd, 0x09, 0xfe, 0x0a, 0xf6, 0xc8, 0xf2, 0x07, 0x0c, 0xf4,
  0x02, 0x0c, 0xdf, 0x07, 0x07, 0x05, 0xa7, 0x04, 0x13, 0xf4, 0xfc, 0xf8,
  0x01, 0x03, 0xff, 0x09, 0x04, 0x11, 0x81, 0x01, 0x05, 0xcd, 0x02, 0x0d,
  0x07, 0x06, 0xf6, 0x11, 0xb4, 0x19, 0x0c, 0x21, 0xe5, 0xf3, 0x26, 0x1f,
  0xe0, 0x1a, 0x67, 0xc5, 0x0f, 0xe4, 0xfa, 0x1c, 0xa6, 0xf1, 0xe7, 0xfe,
  0x0a, 0x25, 0x1e, 0x12, 0xb9, 0xcd, 0xe4, 0xf9, 0xdb, 0xee, 0xea, 0x34,
  0xe9, 0x95, 0x0a, 0x19, 0xb2, 0x00, 0xd1, 0x92, 0x14, 0x34, 0x4c, 0x9f,
  0xef, 0xcb, 0xe6, 0x12, 0xdf, 0xcf, 0x47, 0xcd, 0x02, 0x08, 0x7f, 0xe9,
  0x36, 0x2a, 0xcb, 0xce, 0xa0, 0x55, 0xa3, 0xb8, 0xca, 0x56, 0x97, 0x3b,
  0x85, 0xf0, 0xbd, 0xab, 0x0d, 0x5c, 0x49, 0xe1, 0xf9, 0x98, 0x81, 0xe1,
  0x32, 0x4b, 0x8e, 0x28, 0x8d, 0x3a, 0x3a, 0x04, 0x2e, 0xb8, 0xee, 0xa2,
  0x1a, 0x0c, 0xc6, 0xfc, 0xc6, 0xb3, 0x48, 0xf8, 0xd2, 0xa1, 0xca, 0xa1,
  0xc6, 0x9d, 0x10, 0x0f, 0xbb, 0xa7, 0x2f, 0x1f, 0x30, 0xb4, 0xae, 0xea,
  0x37, 0xb6, 0x21, 0x14, 0x42, 0xa6, 0x9e, 0x43, 0xf9, 0xfb, 0x03, 0xf7,
  0xe4, 0x15, 0x11, 0x34, 0xfd, 0xea, 0x0d, 0xfb, 0x2a, 0x27, 0xae, 0xed,
  0x02, 0xfd, 0xe4, 0xfc, 0xf3, 0xf3, 0x4a, 0x08, 0x14, 0x0b, 0x05, 0x34,
  0x15, 0x2e, 0xf7, 0x10, 0x11, 0xef, 0x0c, 0x37, 0xf4, 0x03, 0xf9, 0xf4,
  0xf3, 0xf6, 0x1a, 0x0d, 0xfa, 0x19, 0x7f, 0x12, 0x19, 0x03, 0xf7, 0xfe,
  0x10, 0x1f, 0xff, 0xe3, 0xf2, 0xdb, 0x58, 0xf5, 0x16, 0x20, 0x23, 0xde,
  0x07, 0x24, 0xd6, 0x51, 0xf5, 0xdb, 0x27, 0x0f, 0xd5, 0x1d, 0x23, 0xa4,
  0x2b, 0x24, 0x7b, 0x00, 0x08, 0x07, 0xf6, 0x5c, 0xed, 0x3d, 0xeb, 0xf3,
  0x08, 0xf8, 0x4a, 0x9e, 0x0b, 0x5d, 0x2a, 0x02, 0xe6, 0x12, 0x1a, 0xd3,
  0x02, 0xf9, 0x2d, 0xef, 0xea, 0x1f, 0x36, 0xd0, 0x22, 0xcf, 0xc6, 0xcb,
  0x58, 0x4b, 0x21, 0x18, 0xf9, 0xf2, 0xc9, 0x25, 0xf4, 0x1e, 0x81, 0xd8,
  0x1c, 0xcd, 0xe0, 0x01, 0x00, 0xef, 0xfe, 0x5f, 0xfe, 0x01, 0xfa, 0x2f,
  0xfe, 0xfb, 0x16, 0x07, 0x08, 0x51, 0x0d, 0xfd, 0x09, 0x05, 0xff, 0x2a,
  0xf1, 0xfa, 0x4f, 0xf6, 0x07, 0x1e, 0x3b, 0xf3, 0x05, 0x0f, 0x05, 0x04,
  0x08, 0xf8, 0xfd, 0xf9, 0xff, 0x0b, 0x04, 0x94, 0xf4, 0x0a, 0x00, 0x1d,
  0xd6, 0xdf, 0x09, 0xfc, 0xf6, 0xf7, 0x06, 0xd6, 0xff, 0x00, 0x81, 0x03,
  0x0f, 0xe2, 0xff, 0x05, 0xfe, 0xf8, 0x0c, 0xf2, 0xe1, 0x04, 0xf6, 0x15,
  0x04, 0x0f, 0xf1, 0x13, 0xeb, 0x0b, 0x11, 0xe9, 0x28, 0x14, 0xa8, 0x05,
  0xef, 0xe3, 0xdf, 0x04, 0x08, 0x01, 0x2a, 0xd5, 0xe6, 0x12, 0x26, 0xf9,
  0x0d, 0x18, 0x0c, 0xff, 0x02, 0x00, 0xf9, 0x2d, 0xf9, 0xf0, 0xe8, 0x0d,
  0xf8, 0x04, 0xff, 0x05, 0xf0, 0x1f, 0x7f, 0xfc, 0x06, 0x11, 0x13, 0xe8,
  0x03, 0x0b, 0x33, 0xeb, 0xf2, 0xda, 0x3f, 0xdb, 0x11, 0x23, 0x11, 0xff,
  0x81, 0xf8, 0x4d, 0xd1, 0x8b, 0xae, 0x15, 0x4a, 0x06, 0x18, 0x15, 0x88,
  0x64, 0xab, 0x88, 0x5f, 0x14, 0x8a, 0x06, 0xb9, 0x0a, 0xc2, 0xb2, 0x03,
  0x88, 0xb6, 0x8a, 0x1e, 0xb4, 0x20, 0xc4, 0x3f, 0x39, 0xd6, 0xff, 0xaa,
  0x85, 0xea, 0x52, 0xa1, 0x85, 0x54, 0xfb, 0x4e, 0x3d, 0x4e, 0x44, 0xbf,
  0x62, 0xc0, 0xa3, 0xe9, 0xb6, 0xca, 0x5a, 0x9b, 0x55, 0x49, 0x23, 0x90,
  0xa5, 0xa1, 0xd5, 0x2f, 0xf0, 0xdf, 0xee, 0xe6, 0x53, 0xf1, 0xec, 0x11,
  0xe8, 0xe1, 0xd9, 0xf1, 0x20, 0xf2, 0xab, 0xd7, 0xec, 0xf9, 0xeb, 0xea,
  0x7a, 0xf1, 0x1a, 0xea, 0xee, 0x01, 0xf8, 0x7f, 0xff, 0x29, 0x25, 0xe7,
  0xde, 0xd6, 0xf7, 0x39, 0x0c, 0xf5, 0xf0, 0x1c, 0xad, 0xe4, 0x24, 0xf9,
  0x1b, 0x21, 0x59, 0x27, 0xfb, 0x25, 0xd9, 0x13, 0x0a, 0x2a, 0x1b, 0xc5,
  0x02, 0x0f, 0x48, 0x04, 0xfc, 0x36, 0xec, 0xcc, 0xff, 0x04, 0xf7, 0x81,
  0x02, 0xfb, 0xfa, 0xa9, 0x07, 0x08, 0x07, 0x01, 0x01, 0x85, 0xee, 0x07,
  0x01, 0xf3, 0xfe, 0x90, 0x0e, 0x04, 0xce, 0x07, 0xe9, 0xc6, 0xad, 0x0a,
  0xf8, 0x06, 0xfd, 0x08, 0x0b, 0xff, 0x0d, 0x25, 0x06, 0xf4, 0xf1, 0x26,
  0x02, 0x04, 0x04, 0xee, 0x07, 0x24, 0x12, 0x04, 0xf9, 0x10, 0x02, 0x15,
  0xfd, 0x02, 0x21, 0x02, 0xff, 0x0d, 0x25, 0xfa, 0xfb, 0x23, 0x07, 0xff,
  0xe2, 0x03, 0xfc, 0x2c, 0x2f, 0x09, 0xfc, 0x5b, 0xe2, 0x0b, 0x27, 0x00,
  0x4e, 0x44, 0x0b, 0xbf, 0xd3, 0x01, 0xfb, 0x30, 0x1f, 0xd3, 0x65, 0xf2,
  0x26, 0x38, 0x24, 0x7f, 0x45, 0x53, 0x5d, 0xfd, 0x00, 0xd5, 0x00, 0xfa,
  0xda, 0xed, 0xf8, 0x04, 0xd8, 0x0e, 0x28, 0x0b, 0xe3, 0x18, 0x6a, 0x41,
  0x1a, 0x22, 0xeb, 0xf9, 0xed, 0xdf, 0x04, 0xe3, 0x02, 0x0d, 0x42, 0xf4,
  0x08, 0xfe, 0xf4, 0xdd, 0xe4, 0xb4, 0xf9, 0x01, 0xed, 0x90, 0x96, 0x9d,
  0x91, 0xaf, 0xaf, 0xb9, 0x4f, 0x51, 0x0d, 0x12, 0xf2, 0xd4, 0x0f, 0x2e,
  0x3b, 0x9a, 0xf7, 0x58, 0x1d, 0x81, 0xee, 0x3c, 0x97, 0xd4, 0xbb, 0xf5,
  0x50, 0x49, 0xa5, 0x8a, 0xf6, 0xe2, 0x26, 0xc2, 0xdb, 0x9d, 0xc8, 0xec,
  0xea, 0x4d, 0x3f, 0x98, 0x47, 0x16, 0x4d, 0x4d, 0xbb, 0x00, 0x30, 0x0d,
  0xdc, 0xc1, 0x3a, 0xaa, 0x88, 0x8b, 0xe8, 0xba, 0x09, 0xfd, 0xf8, 0xfb,
  0xbb, 0x03, 0x0c, 0xf4, 0xfc, 0x09, 0xf9, 0x05, 0xf6, 0xf9, 0x05, 0xf6,
  0xfc, 0xf1, 0xfb, 0x01, 0xc4, 0xf9, 0xf4, 0xf7, 0x01, 0xff, 0xf8, 0xa5,
  0x81, 0xf2, 0xb3, 0xf5, 0x03, 0x0a, 0x04, 0xeb, 0x01, 0x08, 0x10, 0xf4,
  0x04, 0x01, 0x09, 0x02, 0x07, 0xf0, 0xe8, 0x05, 0x0d, 0xfc, 0xfe, 0x09,
  0x08, 0x07, 0xe8, 0x04, 0x05, 0x06, 0xd1, 0x11, 0xfd, 0xef, 0x04, 0x01,
  0xfe, 0x10, 0x13, 0xfe, 0xf0, 0xf5, 0x06, 0xc8, 0xf5, 0x00, 0x00, 0xef,
  0xe7, 0x05, 0x13, 0xee, 0xf4, 0xfa, 0x01, 0x07, 0x03, 0xe1, 0xd0, 0xdf,
  0x14, 0xe7, 0xf2, 0xdf, 0x00, 0xdc, 0x0b, 0xfe, 0x08, 0x29, 0xee, 0xb9,
  0xd8, 0x0f, 0xfd, 0xcb, 0x23, 0x0e, 0xc9, 0x13, 0x82, 0xcb, 0xe8, 0x26,
  0x17, 0xcc, 0x0d, 0x18, 0xea, 0xe8, 0xc8, 0x12, 0x09, 0x28, 0x8d, 0xee,
  0xe8, 0x81, 0xed, 0x29, 0xfe, 0x03, 0xff, 0xcd, 0xd7, 0xea, 0xdb, 0xab,
  0x0a, 0x03, 0x12, 0x0b, 0xa6, 0xc8, 0xe7, 0x05, 0xfe, 0xf8, 0xe4, 0xde,
  0xc5, 0xe6, 0x9d, 0x14, 0xfd, 0xce, 0xca, 0x81, 0x1c, 0xae, 0xf4, 0x14,
  0xf1, 0x0d, 0xf1, 0x22, 0x0f, 0xa7, 0xfe, 0x25, 0xed, 0x07, 0xcd, 0x98,
  0xf5, 0x3b, 0xee, 0xba, 0xdf, 0xd3, 0x08, 0x0c, 0x13, 0xec, 0x46, 0xf7,
  0x1a, 0x0e, 0x56, 0x21, 0x1c, 0x2f, 0xfa, 0xfd, 0xe8, 0x09, 0xf9, 0x0f,
  0xf8, 0x00, 0x07, 0xe4, 0xe0, 0x0f, 0x07, 0xfc, 0x25, 0xe5, 0x7f, 0x0f,
  0x0f, 0x04, 0x07, 0x06, 0xff, 0xd8, 0x03, 0xf4, 0x07, 0x02, 0xfe, 0x14,
  0x0d, 0x49, 0xef, 0xf8, 0xf8, 0x14, 0x06, 0xc9, 0x10, 0xe2, 0x23, 0x01,
  0x14, 0x0c, 0x42, 0x0a, 0xf2, 0xf1, 0xa5, 0xfe, 0xea, 0x01, 0xfa, 0x1f,
  0xf8, 0x0f, 0xf0, 0x16, 0x1d, 0x0b, 0xab, 0x11, 0xf6, 0xeb, 0x09, 0x0c,
  0x1e, 0x1f, 0xfb, 0x8f, 0xd0, 0x14, 0xf4, 0x81, 0x2a, 0xf5, 0x06, 0x2b,
  0xd6, 0xc8, 0xac, 0x0d, 0x18, 0xed, 0xf4, 0x86, 0x23, 0xff, 0x8a, 0x09,
  0xc8, 0xd7, 0x97, 0x03, 0xda, 0x9a, 0xca, 0xca, 0xce, 0x13, 0xe4, 0x21,
  0xcc, 0xf3, 0x0d, 0xdd, 0x1f, 0x13, 0x08, 0xf7, 0xcd, 0xc1, 0x1e, 0xd9,
  0xec, 0xda, 0x31, 0xcf, 0xd8, 0xf1, 0xd7, 0x0b, 0xc4, 0x14, 0x1e, 0x0c,
  0xf5, 0xf8, 0xef, 0x0a, 0xea, 0x92, 0x24, 0xd4, 0xf0, 0x84, 0x4c, 0xd0,
  0x32, 0x54, 0xa8, 0xed, 0x43, 0x18, 0x37, 0x59, 0xf2, 0x9f, 0xa6, 0x39,
  0x9e, 0xf1, 0x6c, 0x62, 0xc5, 0x63, 0x49, 0x22, 0xcb, 0x07, 0x98, 0xbc,
  0x5a, 0xa6, 0x88, 0xcb, 0xd5, 0x3f, 0xe0, 0xca, 0x91, 0x87, 0x14, 0x17,
  0x1a, 0xa3, 0x5d, 0x6f, 0x81, 0x29, 0x8b, 0xac, 0xae, 0x38, 0x08, 0xc0,
  0x48, 0xef, 0x3b, 0x6f, 0x36, 0xa7, 0x4e, 0xab, 0xed, 0x07, 0xfb, 0x1d,
  0xf4, 0xdb, 0x02, 0xec, 0xf3, 0xfb, 0x0f, 0xda, 0xcc, 0x0e, 0x3b, 0x02,
  0x04, 0xf9, 0xfb, 0x21, 0x05, 0xea, 0xc9, 0x0c, 0x12, 0x12, 0x13, 0xcd,
  0x17, 0xa0, 0x02, 0x02, 0xff, 0x1d, 0x0b, 0xc7, 0xfc, 0x10, 0x25, 0xf5,
  0xfa, 0x0e, 0xd7, 0x06, 0xe7, 0xf7, 0x81, 0xfe, 0x05, 0xdd, 0x0d, 0xe5,
  0x0a, 0xc9, 0x08, 0xfb, 0x17, 0x08, 0xc2, 0x0b, 0xfa, 0xea, 0xf9, 0xf3,
  0xf6, 0xf2, 0xec, 0x05, 0x14, 0xfe, 0x05, 0x21, 0x02, 0xf0, 0x01, 0xf7,
  0x11, 0x04, 0xb7, 0xf9, 0xf0, 0xf6, 0xe2, 0x02, 0x04, 0xfa, 0x3a, 0xeb,
  0x05, 0x20, 0x03, 0x50, 0x0c, 0x3a, 0x01, 0x07, 0x06, 0xee, 0xe2, 0x3a,
  0xe4, 0x07, 0xf2, 0xfb, 0xf5, 0xf7, 0x1a, 0xff, 0x03, 0x17, 0x7f, 0x0d,
  0x07, 0x0d, 0xfe, 0xfb, 0xf0, 0x00, 0x26, 0xf2, 0xeb, 0xf4, 0x52, 0xf8,
  0x08, 0x22, 0xc9, 0xfd, 0x1e, 0x34, 0x0d, 0xcf, 0x98, 0x82, 0x10, 0xe5,
  0x38, 0x90, 0xca, 0x5f, 0xba, 0x88, 0x65, 0xef, 0x4e, 0xb5, 0xac, 0x7d,
  0x90, 0x96, 0xf1, 0x5b, 0xbc, 0x06, 0x5d, 0x7e, 0xb1, 0xd5, 0x09, 0x8c,
  0xdc, 0xa4, 0x79, 0xe7, 0x2b, 0xf2, 0xa1, 0x92, 0x05, 0x2c, 0x18, 0x48,
  0xb9, 0xc2, 0xd3, 0xdc, 0x08, 0x30, 0xce, 0xcb, 0x19, 0x59, 0x88, 0x31,
  0x9e, 0x70, 0x7e, 0x81, 0xb8, 0x95, 0x99, 0x81, 0xba, 0xf8, 0x2e, 0x1f,
  0x38, 0xf9, 0xe1, 0x5c, 0xe4, 0xb7, 0xd9, 0xc9, 0x4a, 0x02, 0xbc, 0x10,
  0x06, 0x11, 0xef, 0x0e, 0x1d, 0x07, 0x3f, 0x21, 0xd2, 0x34, 0x1e, 0x31,
  0x43, 0x22, 0x17, 0x25, 0xd4, 0xdc, 0xe5, 0xf5, 0xdd, 0x34, 0x16, 0xe8,
  0xae, 0xed, 0x56, 0x63, 0x28, 0xf8, 0x31, 0x10, 0xe1, 0xf9, 0xd1, 0x1b,
  0xdb, 0x7f, 0xd1, 0xaf, 0xf7, 0x2a, 0xec, 0xee, 0xe5, 0xf1, 0xd1, 0xdc,
  0xfe, 0x06, 0x05, 0xb4, 0x01, 0x06, 0x07, 0xe4, 0xff, 0x07, 0xef, 0x08,
  0xf6, 0xee, 0x0e, 0x00, 0x00, 0x03, 0xff, 0xfd, 0x02, 0x01, 0xd7, 0x03,
  0x04, 0xf7, 0xef, 0xfc, 0x01, 0xe0, 0x01, 0xfb, 0x02, 0x06, 0x03, 0xf2,
  0x00, 0xec, 0x06, 0xe7, 0xfd, 0xff, 0x02, 0xec, 0xd5, 0x81, 0xe3, 0x05,
  0xf5, 0x02, 0x04, 0x16, 0xfd, 0xfd, 0xa9, 0x0a, 0x04, 0x10, 0xff, 0x0d,
  0xfc, 0xcd, 0xfd, 0x05, 0xea, 0xe8, 0x04, 0x02, 0x3c, 0xfb, 0x05, 0x32,
  0xe7, 0xf7, 0x00, 0xfb, 0x22, 0x0c, 0xc0, 0xe5, 0xf6, 0xe8, 0xfa, 0xfa,
  0x35, 0xf4, 0x2b, 0xe5, 0x02, 0x15, 0x07, 0x66, 0x04, 0x34, 0x23, 0xe3,
  0xce, 0xd1, 0xde, 0x49, 0xdc, 0xf1, 0xfa, 0x14, 0xa1, 0xe3, 0x20, 0xef,
  0x16, 0x1e, 0x7c, 0x27, 0xf4, 0x29, 0xcb, 0x18, 0xe9, 0xef, 0x14, 0xcb,
  0xe9, 0xfb, 0x60, 0xe9, 0xb3, 0x33, 0x81, 0xb6, 0xf5, 0x06, 0x05, 0x2d,
  0xf8, 0xf2, 0xff, 0x02, 0x08, 0xf3, 0x0b, 0xfa, 0xed, 0x18, 0x43, 0x0e,
  0xfb, 0xfc, 0xef, 0x27, 0x00, 0xfa, 0xe3, 0xfc, 0x0f, 0x1f, 0x10, 0xfd,
  0x08, 0xad, 0xf9, 0x07, 0x0e, 0x07, 0x04, 0xe4, 0xfe, 0x04, 0x1d, 0x04,
  0xfe, 0x02, 0xe3, 0x02, 0x09, 0xf8, 0x81, 0xdd, 0xf8, 0xf5, 0x07, 0xea,
  0xfb, 0xff, 0x0a, 0x05, 0x17, 0x03, 0xd2, 0x00, 0x11, 0xeb, 0x0a, 0xed,
  0x06, 0xfa, 0xec, 0xfe, 0xf3, 0xfb, 0x0b, 0xef, 0x0b, 0x17, 0xf3, 0x01,
  0x02, 0xf2, 0x3e, 0xff, 0x1b, 0xfd, 0x0f, 0xea, 0xd7, 0xe8, 0x1d, 0xf5,
  0x0f, 0xe1, 0x0b, 0x06, 0xc9, 0x26, 0xe5, 0x09, 0x1a, 0x01, 0x16, 0xcd,
  0x1a, 0xf7, 0x07, 0xfa, 0x19, 0x16, 0x38, 0xf4, 0x00, 0xf8, 0x81, 0xfe,
  0x03, 0x00, 0xfb, 0x20, 0xf7, 0x06, 0xd9, 0x06, 0x1b, 0x21, 0xa5, 0x21,
  0xf5, 0xfd, 0x0a, 0x0b, 0x2f, 0x1f, 0x00, 0x31, 0x03, 0xfb, 0x0b, 0xf1,
  0x12, 0x2f, 0x22, 0x0a, 0x26, 0xf8, 0x7f, 0x09, 0x21, 0x02, 0x2f, 0x10,
  0x03, 0x24, 0xfd, 0x0d, 0x0f, 0xfd, 0x04, 0xf6, 0x09, 0x2a, 0x09, 0xf1,
  0x02, 0x20, 0x1a, 0xd3, 0x0d, 0xf0, 0x18, 0xe6, 0xff, 0xfa, 0x39, 0xfa,
  0xf9, 0xf4, 0x95, 0xf0, 0x0c, 0xe6, 0x10, 0x0c, 0x15, 0xff, 0xe4, 0x10,
  0x0c, 0x15, 0xba, 0x09, 0xfd, 0xec, 0xff, 0xfd, 0xf5, 0x02, 0x0f, 0x81,
  0x0a, 0x02, 0xfc, 0xba, 0x02, 0xf7, 0xfd, 0x03, 0xee, 0xce, 0x19, 0xf2,
  0x08, 0xfe, 0xf0, 0xe5, 0xfd, 0x05, 0xcb, 0x00, 0x11, 0xe6, 0xb1, 0xfa,
  0x06, 0xf0, 0x0b, 0x05, 0x0b, 0x02, 0x07, 0x02, 0x06, 0xe6, 0xff, 0xf3,
  0x0a, 0x07, 0x01, 0xe2, 0xea, 0xcd, 0x04, 0xfb, 0xe4, 0xfa, 0x06, 0x22,
  0x04, 0xfb, 0xed, 0x07, 0x01, 0x17, 0x12, 0x0c, 0x0c, 0xfc, 0xfb, 0x00,
  0xd7, 0xff, 0x1c, 0x32, 0x0b, 0x95, 0x47, 0x72, 0xc8, 0xd6, 0x20, 0xc0,
  0x3d, 0x33, 0xb3, 0xe6, 0x1b, 0x25, 0xfc, 0x17, 0xd2, 0xf4, 0x63, 0xdc,
  0x37, 0x63, 0x1b, 0x59, 0x41, 0x38, 0x1e, 0xcf, 0xd7, 0xcf, 0xd6, 0x38,
  0xf1, 0x23, 0x25, 0x0f, 0xba, 0x09, 0x0f, 0x06, 0x34, 0x35, 0x77, 0x0f,
  0xf7, 0xcf, 0xee, 0x32, 0xe2, 0xdf, 0x21, 0xec, 0x25, 0x26, 0x0f, 0xe6,
  0x81, 0x0d, 0xcd, 0xcb, 0xfc, 0x04, 0x0b, 0x07, 0xac, 0x81, 0x08, 0xed,
  0x13, 0xf6, 0x2d, 0x9c, 0xc5, 0x0b, 0x6c, 0xe9, 0x0d, 0x06, 0xfa, 0x08,
  0x98, 0xd4, 0xd9, 0x26, 0x14, 0xe3, 0xf1, 0xb4, 0xe0, 0x10, 0xe4, 0x1b,
  0x11, 0xfb, 0x01, 0xe2, 0xf9, 0xcb, 0x03, 0x20, 0xde, 0xf4, 0xde, 0xf0,
  0xf8, 0x43, 0x91, 0xa1, 0xf1, 0xbb, 0x0c, 0x01, 0x0f, 0xce, 0x4b, 0xfd,
  0x20, 0x30, 0xfd, 0x1a, 0x12, 0xf1, 0xca, 0xe8, 0x1c, 0x10, 0x22, 0x1a,
  0xf4, 0xce, 0x39, 0xee, 0xe9, 0xff, 0x14, 0xc9, 0x09, 0x06, 0x1b, 0xc6,
  0x12, 0x06, 0x2b, 0x3a, 0xf3, 0x0e, 0xfa, 0x1e, 0x34, 0x0d, 0x01, 0xbf,
  0x12, 0xf2, 0x1a, 0x05, 0x12, 0x0b, 0x2d, 0x09, 0x1c, 0x06, 0x25, 0x18,
  0xde, 0xee, 0xfe, 0xe0, 0x0e, 0x15, 0x96, 0xde, 0xfb, 0xb9, 0xeb, 0x37,
  0x08, 0x81, 0x2d, 0xf2, 0x15, 0x39, 0xf7, 0x32, 0xbf, 0x1d, 0x04, 0xfa,
  0xed, 0xe6, 0xf5, 0xf8, 0x19, 0xf3, 0xed, 0x12, 0xff, 0xf1, 0x04, 0xfd,
  0x11, 0xfa, 0xb5, 0xfc, 0xfb, 0xef, 0xee, 0xee, 0x01, 0xfe, 0x1e, 0xff,
  0x03, 0x01, 0xfa, 0x36, 0x0a, 0x0b, 0x09, 0xf7, 0x04, 0xf7, 0xf9, 0x3d,
  0x01, 0x10, 0xf0, 0x0a, 0xfd, 0x01, 0x13, 0x04, 0x0a, 0x06, 0x7f, 0x0b,
  0x0e, 0x00, 0x05, 0xff, 0xf8, 0x12, 0x24, 0xf3, 0xf6, 0x03, 0x5d, 0xf8,
  0x0e, 0x23, 0x00, 0xf0, 0x4f, 0xd9, 0xe2, 0xec, 0xa2, 0xa1, 0x05, 0xbf,
  0x98, 0xed, 0xd7, 0xe4, 0xfa, 0x19, 0xe2, 0xe6, 0xbc, 0xb7, 0x48, 0x21,
  0xc4, 0xae, 0x14, 0x42, 0x17, 0xbb, 0xd5, 0x1f, 0xcd, 0x57, 0x3b, 0x44,
  0x9c, 0xb2, 0x8e, 0xc5, 0xa1, 0xdd, 0xf1, 0x94, 0xc4, 0xe8, 0x29, 0x92,
  0x18, 0x86, 0x81, 0x84, 0xd4, 0xe1, 0x92, 0xbe, 0xe2, 0xbb, 0xf3, 0x2b,
  0x26, 0x22, 0xf4, 0x24, 0x88, 0x98, 0xee, 0xad, 0xfc, 0x13, 0x03, 0x14,
  0xe5, 0xfa, 0x12, 0xec, 0xe8, 0x1d, 0x0c, 0x0d, 0x09, 0x17, 0x7f, 0xf8,
  0x19, 0x0b, 0xfc, 0x26, 0x03, 0xf7, 0x14, 0x06, 0x0e, 0x09, 0x12, 0xeb,
  0xd3, 0x19, 0xd8, 0xee, 0x13, 0x0d, 0x11, 0xca, 0x1e, 0xe8, 0x1a, 0xdf,
  0xf5, 0x0e, 0x06, 0xe9, 0xe9, 0xfb, 0x88, 0x00, 0x01, 0x0d, 0x09, 0x1e,
  0x02, 0x04, 0xe5, 0x0e, 0x0b, 0x13, 0x9c, 0x18, 0xfe, 0xf3, 0x14, 0x02,
  0x0e, 0x06, 0x00, 0x19, 0xd0, 0x19, 0x0c, 0x1a, 0xff, 0x0b, 0x02, 0x15,
  0x29, 0x0a, 0x1c, 0xe1, 0x05, 0xe5, 0x11, 0x0f, 0xd6, 0x01, 0x28, 0xf5,
  0x10, 0x12, 0x07, 0x11, 0x81, 0x2b, 0x99, 0xe5, 0xf9, 0x04, 0x0a, 0xfa,
  0x0d, 0xfa, 0x06, 0xfd, 0xf0, 0x01, 0x1c, 0x00, 0x08, 0xf6, 0xf9, 0x02,
  0x0a, 0x0e, 0xf9, 0x15, 0x02, 0xee, 0xf4, 0xfc, 0x0b, 0x05, 0xf9, 0x0b,
  0xe7, 0x0a, 0x03, 0xea, 0xfa, 0xfc, 0xf8, 0x81, 0xfe, 0x03, 0xf8, 0xd2,
  0x03, 0xfc, 0xe5, 0x05, 0xef, 0xd6, 0xf8, 0x09, 0x06, 0x07, 0xf6, 0xe3,
  0xfa, 0xf9, 0xce, 0x07, 0x00, 0xf1, 0xcb, 0xfc, 0x07, 0xf4, 0xfe, 0x02,
  0x03, 0xfb, 0xf6, 0xef, 0x01, 0xf4, 0xf9, 0xf4, 0x02, 0x02, 0xfe, 0xf5,
  0x06, 0xf6, 0xf9, 0x02, 0xfc, 0x08, 0x06, 0xe8, 0xf6, 0x03, 0xf5, 0xfb,
  0xf9, 0xf9, 0xf6, 0xf7, 0x02, 0xf4, 0xf8, 0x05, 0x06, 0x02, 0xf2, 0x10,
  0x22, 0x06, 0x11, 0x2c, 0x08, 0x0b, 0xfc, 0x0b, 0x1f, 0x0a, 0xf6, 0xf8,
  0x0a, 0xf6, 0x03, 0x08, 0x48, 0xfc, 0x2d, 0xff, 0x00, 0x0b, 0x07, 0x6c,
  0x81, 0x25, 0xb2, 0xf8, 0xfd, 0xf6, 0x03, 0xf8, 0x09, 0xff, 0x08, 0xf1,
  0xf7, 0x03, 0x09, 0x0b, 0xfa, 0xeb, 0x38, 0xf5, 0xfb, 0x01, 0xff, 0xfa,
  0x0c, 0x00, 0xe8, 0x02, 0x0a, 0xf0, 0x07, 0x03, 0xfe, 0x03, 0x05, 0xfe,
  0xdf, 0x9e, 0x84, 0x41, 0x32, 0xcd, 0x49, 0x37, 0x85, 0xfb, 0xde, 0x22,
  0xb3, 0x99, 0xba, 0xa6, 0x64, 0xdc, 0x54, 0x27, 0xda, 0xbc, 0xcd, 0xc4,
  0x07, 0x95, 0x82, 0x50, 0xac, 0x27, 0xa0, 0xa9, 0x04, 0xb7, 0xc8, 0xaf,
  0x00, 0x24, 0xc0, 0x4d, 0x94, 0xd0, 0x2e, 0xab, 0xe2, 0xb3, 0xa5, 0x81,
  0x87, 0xdd, 0x10, 0xa1, 0x48, 0x2b, 0xcc, 0xc7, 0xb5, 0x1f, 0x19, 0xef,
  0x83, 0x58, 0xab, 0xbb, 0x10, 0x0a, 0xfe, 0x00, 0x00, 0x0e, 0x00, 0xd2,
  0x10, 0x08, 0x13, 0xf9, 0xec, 0xe5, 0xf6, 0xff, 0x0d, 0x10, 0x0d, 0x07,
  0xf3, 0x13, 0xe6, 0x0a, 0x09, 0xe0, 0xfa, 0xe5, 0x00, 0xdb, 0xfe, 0x0f,
  0x0d, 0xff, 0xf7, 0xd3, 0xf9, 0x0d, 0x0b, 0xf1, 0x04, 0x0c, 0x06, 0x00,
  0x06, 0xef, 0xd2, 0x15, 0x11, 0xf4, 0x04, 0x01, 0xf5, 0xf9, 0xd7, 0x06,
  0x04, 0x0a, 0x81, 0x0d, 0xfb, 0xbe, 0xf4, 0x1a, 0xfc, 0xe4, 0x90, 0x07,
  0xe5, 0x51, 0x38, 0x8e, 0xb8, 0xde, 0xe2, 0xf7, 0x00, 0x4e, 0x31, 0x92,
  0xc3, 0x2b, 0x09, 0xa4, 0x93, 0x26, 0x92, 0xbc, 0x3b, 0xbd, 0xfe, 0x26,
  0xb8, 0xd5, 0x54, 0x97, 0xa6, 0xa2, 0x99, 0x98, 0xbf, 0xf2, 0x26, 0xf8,
  0x59, 0x88, 0x08, 0xf6, 0x1d, 0x90, 0x50, 0x1d, 0xde, 0xbe, 0x9e, 0xa6,
  0x30, 0x20, 0xae, 0xe8, 0x02, 0x56, 0x97, 0x15, 0xba, 0x81, 0x1f, 0x53,
  0x05, 0x08, 0x01, 0x0a, 0xd5, 0x12, 0x08, 0x02, 0xf8, 0x05, 0x00, 0x12,
  0x0d, 0x0b, 0x12, 0xee, 0x03, 0xe6, 0x06, 0x06, 0xde, 0x01, 0x0c, 0xf2,
  0x07, 0x09, 0x07, 0xf2, 0x81, 0x12, 0xaf, 0xef, 0x01, 0x01, 0x04, 0xf8,
  0x01, 0xfe, 0x04, 0xfb, 0xfc, 0x05, 0x14, 0xfa, 0xfe, 0x00, 0xe2, 0xfb,
  0x01, 0x02, 0x01, 0x0a, 0x03, 0xf6, 0xf4, 0xfe, 0x05, 0x04, 0xf8, 0x05,
  0xee, 0x02, 0x00, 0x02, 0xfc, 0xfb, 0xf5, 0x7f, 0xf5, 0xf4, 0x06, 0x54,
  0x09, 0x01, 0xff, 0xfd, 0xfc, 0x55, 0x14, 0x05, 0x0d, 0xfd, 0xf6, 0x17,
  0xfc, 0xfd, 0x2c, 0xff, 0x03, 0x2e, 0x1d, 0x00, 0xf7, 0xec, 0xf8, 0xf0,
  0xf9, 0x0c, 0x02, 0xd6, 0x06, 0x09, 0x11, 0x9e, 0x09, 0xfe, 0x08, 0xf6,
  0xd4, 0xa7, 0xe1, 0xee, 0xd1, 0x07, 0xff, 0xda, 0xfb, 0x03, 0x87, 0x01,
  0x0d, 0xd5, 0xf3, 0xfe, 0xfe, 0xde, 0x0e, 0xf0, 0xf8, 0x13, 0x02, 0xfc,
  0xfc, 0xf5, 0xfb, 0xeb, 0xff, 0x0e, 0xfc, 0x0e, 0xf1, 0xea, 0x61, 0xfa,
  0x15, 0x0b, 0x01, 0xff, 0xe9, 0xee, 0xfb, 0xf8, 0x01, 0x04, 0x0e, 0xb7,
  0x0f, 0x00, 0xf1, 0xf4, 0x19, 0x17, 0xfb, 0xef, 0x00, 0x03, 0x1f, 0x0b,
  0x03, 0x14, 0x06, 0xfd, 0xf4, 0x02, 0x81, 0xfe, 0x17, 0xfb, 0x12, 0x13,
  0xf7, 0x0a, 0xf8, 0x11, 0x1b, 0x24, 0xae, 0x1f, 0x11, 0xea, 0xff, 0x04,
  0xfb, 0x08, 0xfc, 0x3e, 0xf8, 0x04, 0x12, 0x3b, 0x03, 0x06, 0x30, 0x05,
  0xc0, 0x3e, 0x22, 0xf7, 0xf8, 0xf8, 0xfb, 0x2b, 0xf8, 0x05, 0xe0, 0x00,
  0x0f, 0x37, 0x1e, 0xf7, 0xeb, 0xf1, 0xf0, 0x02, 0xfe, 0x07, 0x08, 0xa6,
  0x0c, 0x0f, 0x0c, 0xde, 0xfc, 0x04, 0xd7, 0x08, 0xf9, 0xba, 0x81, 0xe9,
  0xfd, 0xf1, 0x01, 0xdb, 0x00, 0xfa, 0xd2, 0xfc, 0x0e, 0xf2, 0xb9, 0xfe,
  0x03, 0xb8, 0x00, 0xf3, 0xf3, 0xf4, 0xff, 0xf8, 0x09, 0x06, 0xff, 0x0d,
  0x00, 0xfe, 0xf4, 0x05, 0x09, 0x09, 0xd5, 0xf6, 0xfa, 0xf7, 0xf7, 0xfd,
  0x12, 0x03, 0x16, 0xf7, 0xff, 0x05, 0x08, 0x15, 0x01, 0x14, 0x0d, 0xfe,
  0xe8, 0xf3, 0xea, 0x31, 0xee, 0xe7, 0xf7, 0x02, 0xd1, 0xed, 0x0d, 0xeb,
  0xff, 0x14, 0x55, 0x0f, 0xfa, 0x07, 0xe7, 0x05, 0xea, 0xe4, 0x15, 0xee,
  0xf6, 0x02, 0x3c, 0xee, 0x08, 0x17, 0x81, 0xe3, 0x10, 0x11, 0x1a, 0xdf,
  0xef, 0xe7, 0x1d, 0xf1, 0x08, 0x16, 0x00, 0xef, 0xd4, 0x20, 0xdd, 0xef,
  0x12, 0xf1, 0x19, 0x05, 0x0c, 0xed, 0xcd, 0x18, 0xff, 0x1d, 0x03, 0xe6,
  0x02, 0xcf, 0x02, 0xfe, 0xfe, 0x06, 0xdc, 0x2a, 0xde, 0xcc, 0x0c, 0xff,
  0xd5, 0xfe, 0xca, 0xc6, 0xf3, 0x1c, 0x46, 0xc1, 0x07, 0xc4, 0xe8, 0xf1,
  0xdf, 0x81, 0x32, 0xf5, 0x0a, 0x0b, 0x2c, 0x04, 0x0a, 0x1d, 0xd0, 0xe7,
  0x02, 0xfe, 0x05, 0x07, 0xfb, 0xfa, 0x00, 0xeb, 0xf5, 0x00, 0x1c, 0xf7,
  0xd4, 0x06, 0xf0, 0x01, 0xf9, 0x00, 0xf9, 0x0c, 0xed, 0xfd, 0xd8, 0xfb,
  0xfd, 0xff, 0x0a, 0x95, 0x09, 0xc9, 0x02, 0x02, 0x06, 0x0a, 0x00, 0xcd,
  0xf9, 0x0c, 0x0a, 0x00, 0x02, 0x07, 0xf0, 0x0c, 0x08, 0xff, 0xce, 0x10,
  0x0c, 0x03, 0x05, 0xfe, 0xff, 0xfe, 0xfa, 0xfd, 0x09, 0x02, 0x81, 0x05,
  0xfc, 0xd1, 0xf9, 0xff, 0xfd, 0xfa, 0xf8, 0x24, 0xf9, 0x05, 0x01, 0xf0,
  0xfb, 0x05, 0x09, 0xfd, 0xd5, 0x0f, 0x30, 0x03, 0x02, 0x05, 0xf5, 0x0c,
  0x04, 0x02, 0xda, 0x09, 0x06, 0x05, 0x0c, 0xd8, 0x05, 0xce, 0x06, 0x04,
  0x09, 0x13, 0x07, 0xbe, 0x04, 0x10, 0x11, 0xee, 0x0a, 0x05, 0xce, 0x0d,
  0xf2, 0xf2, 0x81, 0xec, 0xfd, 0xfe, 0x0d, 0xe2, 0x06, 0x07, 0x02, 0x00,
  0x08, 0x04, 0xce, 0x01, 0x09, 0xe3, 0xfe, 0xf6, 0xff, 0x15, 0xd8, 0x46,
  0xf6, 0x1b, 0x3b, 0xe7, 0xf0, 0x07, 0x09, 0xfe, 0x27, 0xff, 0x64, 0xfe,
  0x13, 0x10, 0x0f, 0x29, 0xde, 0xe3, 0x07, 0xf3, 0x1f, 0x03, 0x32, 0xf5,
  0xfa, 0x4f, 0xdc, 0x03, 0xf9, 0x0a, 0x3c, 0xba, 0x30, 0x12, 0x2f, 0xdf,
  0xfe, 0x29, 0x2b, 0x07, 0x1f, 0xe8, 0x93, 0xfa, 0x21, 0x03, 0x0e, 0xf8,
  0x22, 0x17, 0xc1, 0x03, 0x3d, 0xfd, 0x81, 0x20, 0x24, 0xca, 0x27, 0xf7,
  0xf9, 0xfc, 0x16, 0x7f, 0x06, 0xf8, 0xfb, 0x60, 0xf7, 0xf1, 0x11, 0xff,
  0x10, 0x5b, 0xf2, 0x15, 0x08, 0x12, 0xf2, 0x11, 0x0c, 0xfd, 0x3b, 0x0f,
  0xf8, 0x32, 0x1e, 0x0e, 0x0a, 0x09, 0x10, 0x11, 0x09, 0xf4, 0x12, 0xeb,
  0x06, 0x0e, 0xff, 0xfa, 0xf2, 0xfe, 0xfe, 0x0d, 0x25, 0xf9, 0xfe, 0xf6,
  0x09, 0xf7, 0xfd, 0xe1, 0xfc, 0x0a, 0xfd, 0xf5, 0x0b, 0xca, 0xed, 0x0c,
  0x01, 0xf6, 0xfa, 0xf9, 0xf5, 0xe2, 0x06, 0xf3, 0x03, 0xfc, 0xfb, 0x24,
  0x06, 0xf0, 0xf3, 0xde, 0x1c, 0xfa, 0x8e, 0xec, 0xe9, 0x00, 0xf1, 0xea,
  0x11, 0xe4, 0x08, 0x14, 0xfc, 0xfa, 0x11, 0x0a, 0x11, 0x25, 0x08, 0x14,
  0xeb, 0x09, 0xea, 0x51, 0xff, 0xf3, 0xfd, 0x1a, 0xf9, 0x07, 0x11, 0x16,
  0x07, 0x23, 0x7f, 0x03, 0xfc, 0x28, 0xe3, 0x04, 0xf3, 0xfe, 0x0d, 0x0f,
  0xf5, 0xef, 0x5f, 0xff, 0x13, 0x35, 0xee, 0xfd, 0xef, 0xff, 0xbb, 0xbb,
  0xd6, 0x6b, 0x1e, 0x4a, 0xb3, 0x74, 0xe8, 0x47, 0xe7, 0x54, 0xd5, 0xec,
  0xb0, 0x35, 0xfe, 0x86, 0x28, 0xe4, 0xe8, 0xa1, 0x9b, 0x63, 0x4a, 0x12,
  0xc3, 0x24, 0x16, 0x9f, 0xfe, 0xdd, 0xfb, 0xaa, 0x75, 0x85, 0x8e, 0xd8,
  0xdd, 0xc7, 0x61, 0x59, 0x07, 0x23, 0xdb, 0xa8, 0x82, 0xed, 0x6b, 0x5a,
  0xf3, 0x83, 0xa4, 0x81, 0xe5, 0x43, 0xb3, 0x9b, 0xb1, 0x85, 0x64, 0x57,
  0x05, 0x01, 0xfa, 0x09, 0xf3, 0x1f, 0x07, 0x0b, 0xf8, 0x05, 0x04, 0x21,
  0x0c, 0x07, 0x07, 0xd9, 0x04, 0xe2, 0x03, 0x05, 0xe7, 0xfe, 0x0b, 0xf0,
  0x05, 0x08, 0x02, 0x09, 0x81, 0x0f, 0xa7, 0xe9, 0xfe, 0x03, 0x02, 0xff,
  0xff, 0xff, 0x03, 0xfc, 0xfd, 0xff, 0x0d, 0xff, 0x04, 0xfd, 0x00, 0x06,
  0x01, 0x07, 0x02, 0x09, 0x00, 0x0e, 0xf5, 0xff, 0x02, 0xff, 0x01, 0xfd,
  0xef, 0x02, 0x08, 0xfe, 0xbd, 0xc9, 0xe1, 0x39, 0xfa, 0xd0, 0xda, 0x29,
  0xec, 0xfc, 0xf7, 0xec, 0x34, 0xed, 0x93, 0xe8, 0xd1, 0xfc, 0xc2, 0xf7,
  0x28, 0x02, 0x3b, 0x0f, 0x12, 0xd6, 0x00, 0x55, 0x43, 0x4b, 0x35, 0xeb,
  0x13, 0xe5, 0x12, 0x9b, 0x1f, 0x48, 0x10, 0x22, 0xd9, 0xcd, 0x39, 0x4c,
  0x5f, 0x30, 0x81, 0x40, 0xfd, 0x15, 0xc5, 0x1c, 0x05, 0x4f, 0xd5, 0x07,
  0x34, 0x3b, 0xa2, 0x2c, 0xfb, 0xe0, 0x2d, 0x06, 0xfd, 0xf2, 0x08, 0xff,
  0x25, 0x18, 0x03, 0x23, 0xf3, 0x00, 0xf4, 0x0d, 0x12, 0x07, 0xc4, 0xe5,
  0xfb, 0xe7, 0xf6, 0x05, 0x18, 0xf5, 0x16, 0xee, 0xfe, 0x09, 0x07, 0x2f,
  0xfd, 0x0d, 0x1d, 0xec, 0xc7, 0xe0, 0xdf, 0x3a, 0xe7, 0xd4, 0xf6, 0x14,
  0x81, 0xd8, 0x13, 0xdf, 0x0b, 0x16, 0x69, 0x13, 0xf8, 0x16, 0xc9, 0x11,
  0xe4, 0xec, 0x1a, 0xbe, 0xf4, 0x03, 0x48, 0xf1, 0x00, 0x29, 0x84, 0xa5,
  0xf4, 0xfb, 0xfc, 0x05, 0xee, 0x12, 0x13, 0x05, 0xf7, 0x10, 0x02, 0x12,
  0x15, 0x01, 0xff, 0xfd, 0x10, 0xcd, 0xef, 0x00, 0xfe, 0xeb, 0x06, 0xf3,
  0xff, 0x0c, 0x03, 0xf2, 0x8b, 0xfe, 0xc6, 0xe1, 0x13, 0x14, 0x12, 0xc5,
  0x0a, 0xfe, 0x14, 0xe6, 0x06, 0x0a, 0xfe, 0x14, 0x04, 0xd2, 0xf5, 0x0d,
  0x1f, 0x0d, 0x01, 0x00, 0x0d, 0x0f, 0xbe, 0xf4, 0x0b, 0x1f, 0x81, 0x1b,
  0xfa, 0xce, 0x11, 0x00, 0x03, 0x01, 0xf6, 0x1b, 0xef, 0xf5, 0xff, 0xfa,
  0xfd, 0x06, 0x1d, 0x05, 0xea, 0x0f, 0xf7, 0xfe, 0x05, 0xf9, 0x05, 0x0b,
  0xec, 0xf2, 0xf1, 0x09, 0xfd, 0x04, 0x05, 0x05, 0xe0, 0xda, 0xeb, 0xfa,
  0x0e, 0x02, 0xf9, 0xd5, 0x08, 0x06, 0x04, 0xf9, 0x06, 0x0a, 0xe1, 0x15,
  0x12, 0x03, 0xda, 0x00, 0x10, 0x07, 0x10, 0xf0, 0x05, 0xf8, 0x0a, 0x06,
  0x07, 0xfe, 0x81, 0x03, 0xf9, 0xc8, 0x07, 0x06, 0xde, 0xe9, 0x0a, 0x07,
  0xfc, 0x94, 0x11, 0x3d, 0xf8, 0xd9, 0x1e, 0x81, 0x1d, 0x19, 0xc2, 0xe8,
  0xef, 0xfa, 0xef, 0x1b, 0xe7, 0xe2, 0x1e, 0x19, 0x14, 0x2f, 0x19, 0x24,
  0x1b, 0x18, 0x18, 0x04, 0xfd, 0x02, 0xde, 0x0a, 0xf1, 0x08, 0x15, 0x24,
  0xf4, 0x04, 0xe4, 0xf5, 0x21, 0x14, 0x6b, 0xe7, 0xf6, 0xf1, 0xd7, 0x1e,
  0xf5, 0xdc, 0x0c, 0xf7, 0x10, 0x1e, 0x2e, 0x04, 0xe1, 0x08, 0xd7, 0xf6,
  0xff, 0xff, 0x00, 0x0a, 0x02, 0x18, 0x08, 0x12, 0xf6, 0x02, 0xfd, 0x1a,
  0x17, 0x06, 0xff, 0xc3, 0x02, 0xe1, 0xff, 0x07, 0x00, 0x01, 0x13, 0xf1,
  0x07, 0x0b, 0x06, 0x10, 0x81, 0x12, 0xa9, 0xeb, 0xf9, 0xff, 0xff, 0x05,
  0x01, 0xfd, 0x00, 0xfe, 0xf4, 0xfd, 0x10, 0xfe, 0x05, 0x02, 0x0b, 0x15,
  0xfe, 0x12, 0xfd, 0x0c, 0xfc, 0x0f, 0xff, 0xf8, 0x00, 0x02, 0x04, 0x02,
  0xde, 0x08, 0xfc, 0xfd, 0x00, 0xfd, 0x07, 0x0d, 0x05, 0xf5, 0x06, 0xd7,
  0xfb, 0x03, 0xfb, 0xf4, 0xef, 0xf7, 0xff, 0xf5, 0x02, 0x04, 0x03, 0xfe,
  0x05, 0xf9, 0xbf, 0x0c, 0x01, 0xf2, 0xf6, 0x04, 0x08, 0x97, 0x10, 0x06,
  0x04, 0x06, 0x09, 0xcb, 0x09, 0xf8, 0x0c, 0x00, 0x01, 0x06, 0xde, 0xfb,
  0xed, 0x09, 0x81, 0xac, 0xff, 0xd4, 0xff, 0xfd, 0x03, 0xe4, 0x0e, 0x01,
  0x0d, 0x0c, 0xb9, 0x09, 0x08, 0xde, 0x04, 0xfc, 0xd2, 0x3d, 0xd5, 0xad,
  0x9b, 0x48, 0xfb, 0x9d, 0xfd, 0x42, 0x4c, 0x93, 0xdb, 0x39, 0x5c, 0xb4,
  0xe7, 0xdf, 0x1a, 0xd9, 0xee, 0xe1, 0xc3, 0x02, 0x24, 0xd0, 0x39, 0x96,
  0x13, 0xec, 0x95, 0x04, 0x9f, 0xc2, 0x40, 0x07, 0xf7, 0xc6, 0xde, 0xd8,
  0xf5, 0x0c, 0x41, 0x2c, 0xe3, 0xb6, 0xc8, 0xe7, 0xda, 0xc2, 0xfa, 0xb9,
  0x8d, 0xe4, 0x10, 0x85, 0xde, 0xe1, 0xb8, 0x81, 0x18, 0xce, 0x3d, 0xc4,
  0xbb, 0x3e, 0x40, 0xd0, 0x1d, 0x3d, 0x81, 0x2d, 0x44, 0xfe, 0x43, 0x40,
  0x43, 0x9d, 0x10, 0xfa, 0x85, 0xa3, 0xaa, 0x98, 0x8a, 0x45, 0x49, 0xe5,
  0xd3, 0x50, 0x56, 0xf2, 0x0e, 0xf4, 0x2a, 0x9c, 0x41, 0xb4, 0xd8, 0x9f,
  0xde, 0xc5, 0x09, 0x16, 0xba, 0xba, 0x4c, 0x02, 0x9d, 0x8a, 0x33, 0x28,
  0xdd, 0x02, 0x2e, 0xb4, 0xe9, 0xd5, 0xc1, 0x9f, 0xda, 0xb3, 0x98, 0xb5,
  0xe4, 0xd6, 0xf1, 0xd3, 0xfd, 0xf9, 0xfc, 0xfc, 0xed, 0xde, 0x04, 0x2a,
  0x01, 0xff, 0x06, 0xde, 0x0a, 0x0e, 0xd2, 0xe5, 0xfb, 0xe5, 0xef, 0xfc,
  0xe6, 0xf5, 0x23, 0xfd, 0x04, 0x0a, 0x04, 0x15, 0xeb, 0x19, 0xfd, 0xfe,
  0xfa, 0xf7, 0xe1, 0x43, 0xdc, 0x01, 0xf9, 0x15, 0xfd, 0xf8, 0x0f, 0xf5,
  0x05, 0x14, 0x7f, 0x05, 0x06, 0x00, 0xfb, 0x09, 0xe7, 0xf6, 0x1f, 0xfa,
  0xec, 0x04, 0x57, 0xe9, 0xef, 0x32, 0xc9, 0x00, 0xf4, 0x08, 0x02, 0x81,
  0xfe, 0x10, 0xee, 0xcb, 0x08, 0x07, 0xd9, 0x01, 0xce, 0xcb, 0x06, 0x09,
  0x07, 0x00, 0x02, 0xda, 0xff, 0xf2, 0xb6, 0x00, 0x01, 0xe6, 0x95, 0xf7,
  0xfa, 0xd1, 0x0a, 0x09, 0x02, 0xfa, 0x01, 0x20, 0x03, 0xe4, 0xea, 0x0b,
  0x05, 0xfe, 0xfa, 0xef, 0x1c, 0x17, 0xf7, 0x02, 0xf8, 0x0e, 0xf8, 0xf8,
  0xfe, 0x12, 0xff, 0x02, 0xe9, 0x01, 0x27, 0xe3, 0x02, 0x10, 0xfc, 0x0c,
  0x4e, 0xfb, 0xff, 0xff, 0x04, 0x00, 0x00, 0x00, 0x00, 0x01, 0x00, 0x00,
  0xbc, 0x08, 0x00, 0x00, 0x83, 0x07, 0x00, 0x00, 0x76, 0xf5, 0xff, 0xff,
  0xf3, 0xfa, 0xff, 0xff, 0x2b, 0x27, 0x00, 0x00, 0xb5, 0x09, 0x00, 0x00,
  0x10, 0xf5, 0xff, 0xff, 0x03, 0xfd, 0xff, 0xff, 0xf8, 0xf1, 0xff, 0xff,
  0xa9, 0xe5, 0xff, 0xff, 0xa1, 0x03, 0x00, 0x00, 0xf5, 0xf2, 0xff, 0xff,
  0x50, 0x07, 0x00, 0x00, 0x77, 0x13, 0x00, 0x00, 0xfa, 0xfc, 0xff, 0xff,
  0x65, 0x08, 0x00, 0x00, 0xde, 0xef, 0xff, 0xff, 0x00, 0x00, 0x00, 0x00,
  0x40, 0x18, 0x00, 0x00, 0x6f, 0xfa, 0xff, 0xff, 0x00, 0x00, 0x00, 0x00,
  0x29, 0x00, 0x00, 0x00, 0x9e, 0x09, 0x00, 0x00, 0xc5, 0xf8, 0xff, 0xff,
  0x48, 0x0d, 0x00, 0x00, 0x8f, 0x07, 0x00, 0x00, 0xd9, 0x18, 0x00, 0x00,
  0xb0, 0xfd, 0xff, 0xff, 0xf2, 0x14, 0x00, 0x00, 0x1b, 0x0c, 0x00, 0x00,
  0x25, 0x1f, 0x00, 0x00, 0xe9, 0xf2, 0xff, 0xff, 0xde, 0xf2, 0xff, 0xff,
  0x2e, 0x15, 0x00, 0x00, 0x9d, 0x07, 0x00, 0x00, 0x30, 0xfd, 0xff, 0xff,
  0x2a, 0x02, 0x00, 0x00, 0x8b, 0xfa, 0xff, 0xff, 0xb5, 0x02, 0x00, 0x00,
  0x4c, 0xf7, 0xff, 0xff, 0x7c, 0x05, 0x00, 0x00, 0xef, 0x04, 0x00, 0x00,
  0xc1, 0x10, 0x00, 0x00, 0x1c, 0x0f, 0x00, 0x00, 0x34, 0xfc, 0xff, 0xff,
  0x86, 0x08, 0x00, 0x00, 0x10, 0x05, 0x00, 0x00, 0x10, 0x08, 0x00, 0x00,
  0x8f, 0x18, 0x00, 0x00, 0x72, 0x00, 0x00, 0x00, 0xc4, 0xf6, 0xff, 0xff,
  0xbe, 0xfb, 0xff, 0xff, 0x79, 0x02, 0x00, 0x00, 0xf5, 0xfe, 0xff, 0xff,
  0x97, 0xfa, 0xff, 0xff, 0x13, 0x0b, 0x00, 0x00, 0xe7, 0x04, 0x00, 0x00,
  0xd4, 0x07, 0x00, 0x00, 0x7d, 0x01, 0x00, 0x00, 0x97, 0x06, 0x00, 0x00,
  0x2c, 0xf0, 0xff, 0xff, 0x6b, 0xeb, 0xff, 0xff, 0x1f, 0xfb, 0xff, 0xff,
  0x7c, 0xfb, 0xff, 0xff, 0x5a, 0xfc, 0xff, 0xff, 0x04, 0x00, 0x00, 0x00,
  0x80, 0x02, 0x00, 0x00, 0x06, 0xff, 0x01, 0x01, 0xfd, 0x0d, 0xfa, 0x03,
  0xfa, 0xfd, 0x04, 0xfd, 0xde, 0xea, 0xfd, 0x01, 0xfe, 0xfe, 0xf8, 0x00,
  0x01, 0x00, 0xfe, 0xfe, 0x02, 0x05, 0xfe, 0x03, 0x02, 0x00, 0xfd, 0xfd,
  0xfd, 0x02, 0x01, 0x03, 0x03, 0xff, 0xf6, 0x01, 0x02, 0x09, 0xfc, 0x02,
  0x81, 0xfd, 0x00, 0x06, 0xfb, 0x06, 0x02, 0x01, 0x06, 0x06, 0x81, 0xfe,
  0x03, 0x05, 0x05, 0x09, 0xfe, 0xff, 0x01, 0x04, 0xfe, 0x03, 0x00, 0x07,
  0x02, 0x01, 0x04, 0x04, 0x82, 0x04, 0x01, 0x00, 0xf9, 0xfb, 0x03, 0x03,
  0xff, 0xfd, 0xe9, 0x14, 0x03, 0xf9, 0xfd, 0x81, 0xff, 0x00, 0x02, 0x03,
  0x08, 0x0c, 0x06, 0x0e, 0xfd, 0x02, 0x05, 0x01, 0xf9, 0x02, 0xfe, 0xff,
  0xfb, 0xfe, 0x02, 0x01, 0xe7, 0x02, 0xfa, 0xfe, 0x01, 0xfc, 0x08, 0xfe,
  0xeb, 0x03, 0xd9, 0x00, 0xff, 0x0b, 0xe5, 0x0a, 0xff, 0xfd, 0x0f, 0x04,
  0x00, 0xfe, 0x00, 0x01, 0x02, 0x08, 0xfe, 0x00, 0xef, 0xf7, 0x01, 0xff,
  0x01, 0xf7, 0xfe, 0x02, 0xff, 0x03, 0xf6, 0xff, 0xff, 0x00, 0xfe, 0xef,
  0xff, 0x03, 0x03, 0x00, 0x04, 0xfc, 0xfa, 0xfa, 0xfd, 0x04, 0x02, 0xfe,
  0x07, 0xfe, 0xf9, 0xfc, 0x05, 0x07, 0xff, 0x08, 0x81, 0xfc, 0xf9, 0x07,
  0x04, 0x04, 0xfe, 0x02, 0x03, 0x03, 0x83, 0xff, 0x03, 0x03, 0x04, 0xfd,
  0x02, 0x02, 0x05, 0x00, 0xfe, 0xbd, 0x0a, 0x0b, 0x0a, 0xed, 0xff, 0xf8,
  0xa9, 0x07, 0xfd, 0x04, 0x29, 0xda, 0xd2, 0x0d, 0x06, 0x04, 0xcb, 0x93,
  0xfe, 0xfd, 0xf6, 0x8e, 0xd4, 0x0e, 0x12, 0xf6, 0x0b, 0xe6, 0x09, 0x90,
  0xf9, 0x13, 0x13, 0xfa, 0x17, 0x01, 0x08, 0x09, 0x1a, 0xf5, 0x09, 0xc7,
  0xf9, 0xfc, 0x1d, 0x81, 0x18, 0x0c, 0x08, 0x03, 0x22, 0x07, 0x92, 0x1e,
  0xf8, 0x00, 0x25, 0xdd, 0x00, 0xfc, 0xa1, 0xfd, 0x23, 0xf8, 0x08, 0xe2,
  0x15, 0xfe, 0xef, 0xff, 0x32, 0x03, 0xdd, 0xf4, 0x16, 0x24, 0x28, 0x1e,
  0xfa, 0xed, 0xf4, 0x90, 0x05, 0x81, 0x08, 0x94, 0xb5, 0x22, 0x14, 0x05,
  0xdb, 0x1a, 0x06, 0xab, 0x0f, 0x18, 0xe1, 0x0e, 0xcb, 0x0c, 0x2e, 0x09,
  0xfa, 0xed, 0x28, 0xd6, 0x93, 0xd7, 0x1d, 0xf4, 0x1b, 0xdc, 0xef, 0xe0,
  0xe6, 0x19, 0x93, 0x16, 0x04, 0xdd, 0xef, 0x38, 0x03, 0x15, 0xbe, 0x0f,
  0x05, 0xfa, 0xfc, 0x0a, 0x02, 0xff, 0x05, 0x00, 0x21, 0x01, 0xfb, 0xfd,
  0x08, 0x01, 0xfc, 0xff, 0xfa, 0xff, 0x0c, 0x1b, 0xff, 0x06, 0xf3, 0x4f,
  0x22, 0xfd, 0xfe, 0xf8, 0xfa, 0x06, 0xec, 0x1b, 0x02, 0x00, 0xea, 0xfd,
  0x08, 0xff, 0x00, 0xfe, 0xe0, 0xfc, 0xfe, 0x08, 0x61, 0xf8, 0x0c, 0x08,
  0x05, 0x02, 0x0a, 0xfe, 0xec, 0x05, 0x7f, 0x07, 0x01, 0x03, 0xe1, 0xed,
  0xfd, 0xfc, 0x11, 0xf7, 0xe1, 0x01, 0x03, 0xef, 0x00, 0xca, 0xf1, 0x02,
  0x14, 0xd5, 0xfd, 0xfb, 0x0e, 0x0a, 0xf5, 0x07, 0xfd, 0xfe, 0xfb, 0xfb,
  0xfd, 0xfc, 0x1a, 0x29, 0xfa, 0x09, 0x08, 0x17, 0xfa, 0xf8, 0xfe, 0x03,
  0xfb, 0x0b, 0x0d, 0xca, 0x0a, 0xfe, 0xed, 0xfc, 0x0a, 0xd3, 0x07, 0x11,
  0xa6, 0xff, 0xdd, 0xf8, 0x08, 0xf3, 0xe5, 0x03, 0x0f, 0xf9, 0x81, 0x0e,
  0xe0, 0xf4, 0x11, 0xdb, 0x03, 0x00, 0xc8, 0xdb, 0xc6, 0x10, 0xf9, 0x09,
  0xeb, 0xf8, 0x10, 0x06, 0x27, 0x03, 0x02, 0xfe, 0xf3, 0x13, 0x0d, 0xed,
  0xfd, 0xfb, 0xfa, 0x0e, 0xfc, 0xfa, 0xf6, 0x32, 0x81, 0xec, 0xe3, 0x06,
  0x07, 0xec, 0xfc, 0x16, 0xff, 0xe4, 0xf9, 0xfc, 0x07, 0x01, 0x0f, 0x00,
  0xf1, 0xfb, 0xe0, 0xe1, 0x41, 0x07, 0xf0, 0x95, 0xd3, 0xfa, 0x0f, 0xfc,
  0xfc, 0xfa, 0x55, 0xea, 0x0f, 0x07, 0xff, 0xc3, 0x06, 0xf8, 0x22, 0xfc,
  0x46, 0x11, 0x02, 0xf9, 0xf9, 0xe0, 0xf2, 0x08, 0xe9, 0xd7, 0xf9, 0x01,
  0xf5, 0xfd, 0x17, 0xe6, 0xf2, 0xf8, 0x24, 0xf9, 0x0d, 0xea, 0x11, 0xf8,
  0xe4, 0xe9, 0xe6, 0x1a, 0x0a, 0xf0, 0x04, 0x07, 0xf1, 0xfc, 0xfe, 0xda,
  0x05, 0x0c, 0x08, 0x00, 0x07, 0x04, 0xe6, 0x01, 0x68, 0x13, 0x2a, 0x01,
  0xd9, 0xf2, 0xff, 0xf8, 0x00, 0xe7, 0x7f, 0xd5, 0x0f, 0x0b, 0xff, 0x1a,
  0xf5, 0xfa, 0x17, 0xd3, 0x14, 0x06, 0xfb, 0xf6, 0x04, 0xa4, 0xfe, 0x01,
  0xe0, 0xfb, 0xff, 0xfd, 0xfb, 0xf7, 0x10, 0xfe, 0xfd, 0x01, 0x20, 0xf0,
  0xfa, 0xf6, 0xfa, 0x1f, 0x14, 0xfa, 0x03, 0xe5, 0x01, 0x12, 0x0e, 0xe3,
  0x07, 0x02, 0xec, 0xfc, 0xdd, 0xff, 0x01, 0x01, 0xf7, 0xed, 0x06, 0xae,
  0x79, 0x11, 0x0c, 0xc4, 0xf8, 0xf9, 0x05, 0x05, 0xe1, 0xec, 0x7f, 0xec,
  0xf1, 0x0b, 0xf3, 0x17, 0x08, 0x01, 0xf9, 0xf3, 0xe6, 0xfe, 0xff, 0xff,
  0x04, 0x00, 0x00, 0x00, 0x28, 0x00, 0x00, 0x00, 0x68, 0xff, 0xff, 0xff,
  0x6b, 0x00, 0x00, 0x00, 0xe4, 0xff, 0xff, 0xff, 0x16, 0x01, 0x00, 0x00,
  0x05, 0x00, 0x00, 0x00, 0xeb, 0xff, 0xff, 0xff, 0x27, 0x01, 0x00, 0x00,
  0x01, 0xfd, 0xff, 0xff, 0x8b, 0xfe, 0xff, 0xff, 0x4f, 0x02, 0x00, 0x00,
  0x1a, 0xff, 0xff, 0xff, 0x04, 0x00, 0x00, 0x00, 0x08, 0x00, 0x00, 0x00,
  0xff, 0xff, 0xff, 0xff, 0x40, 0x00, 0x00, 0x00, 0x2e, 0xff, 0xff, 0xff,
  0x04, 0x00, 0x00, 0x00, 0x04, 0x00, 0x00, 0x00, 0x01, 0x00, 0x00, 0x00,
  0x3e, 0xff, 0xff, 0xff, 0x04, 0x00, 0x00, 0x00, 0x0c, 0x00, 0x00, 0x00,
  0xff, 0xff, 0xff, 0xff, 0x04, 0x00, 0x00, 0x00, 0x20, 0x00, 0x00, 0x00,
  0x56, 0xff, 0xff, 0xff, 0x04, 0x00, 0x00, 0x00, 0x04, 0x00, 0x00, 0x00,
  0xfd, 0xff, 0xff, 0xff, 0x44, 0xea, 0xff, 0xff, 0x48, 0xea, 0xff, 0xff,
  0x0f, 0x00, 0x00, 0x00, 0x4d, 0x4c, 0x49, 0x52, 0x20, 0x43, 0x6f, 0x6e,
  0x76, 0x65, 0x72, 0x74, 0x65, 0x64, 0x2e, 0x00, 0x01, 0x00, 0x00, 0x00,
  0x14, 0x00, 0x00, 0x00, 0x00, 0x00, 0x0e, 0x00, 0x18, 0x00, 0x14, 0x00,
  0x10, 0x00, 0x0c, 0x00, 0x08, 0x00, 0x04, 0x00, 0x0e, 0x00, 0x00, 0x00,
  0x14, 0x00, 0x00, 0x00, 0x1c, 0x00, 0x00, 0x00, 0x58, 0x02, 0x00, 0x00,
  0x5c, 0x02, 0x00, 0x00, 0x60, 0x02, 0x00, 0x00, 0x04, 0x00, 0x00, 0x00,
  0x6d, 0x61, 0x69, 0x6e, 0x00, 0x00, 0x00, 0x00, 0x09, 0x00, 0x00, 0x00,
  0x10, 0x02, 0x00, 0x00, 0xac, 0x01, 0x00, 0x00, 0x74, 0x01, 0x00, 0x00,
  0x38, 0x01, 0x00, 0x00, 0xe4, 0x00, 0x00, 0x00, 0xbc, 0x00, 0x00, 0x00,
  0x78, 0x00, 0x00, 0x00, 0x40, 0x00, 0x00, 0x00, 0x04, 0x00, 0x00, 0x00,
  0x82, 0xfe, 0xff, 0xff, 0x1c, 0x00, 0x00, 0x00, 0x00, 0x00, 0x00, 0x09,
  0x1c, 0x00, 0x00, 0x00, 0x20, 0x00, 0x00, 0x00, 0x05, 0x00, 0x00, 0x00,
  0x00, 0x00, 0x06, 0x00, 0x08, 0x00, 0x04, 0x00, 0x06, 0x00, 0x00, 0x00,
  0x00, 0x00, 0x80, 0x3f, 0x01, 0x00, 0x00, 0x00, 0x13, 0x00, 0x00, 0x00,
  0x01, 0x00, 0x00, 0x00, 0x12, 0x00, 0x00, 0x00, 0xba, 0xfe, 0xff, 0xff,
  0x14, 0x00, 0x00, 0x00, 0x00, 0x00, 0x00, 0x08, 0x10, 0x00, 0x00, 0x00,
  0x14, 0x00, 0x00, 0x00, 0x04, 0x00, 0x00, 0x00, 0x14, 0xeb, 0xff, 0xff,
  0x01, 0x00, 0x00, 0x00, 0x12, 0x00, 0x00, 0x00, 0x03, 0x00, 0x00, 0x00,
  0x11, 0x00, 0x00, 0x00, 0x06, 0x00, 0x00, 0x00, 0x05, 0x00, 0x00, 0x00,
  0xee, 0xfe, 0xff, 0xff, 0x1c, 0x00, 0x00, 0x00, 0x00, 0x00, 0x00, 0x08,
  0x1c, 0x00, 0x00, 0x00, 0x20, 0x00, 0x00, 0x00, 0x04, 0x00, 0x00, 0x00,
  0x00, 0x00, 0x06, 0x00, 0x08, 0x00, 0x07, 0x00, 0x06, 0x00, 0x00, 0x00,
  0x00, 0x00, 0x00, 0x01, 0x01, 0x00, 0x00, 0x00, 0x11, 0x00, 0x00, 0x00,
  0x03, 0x00, 0x00, 0x00, 0x10, 0x00, 0x00, 0x00, 0x08, 0x00, 0x00, 0x00,
  0x07, 0x00, 0x00, 0x00, 0x5e, 0xff, 0xff, 0xff, 0x0c, 0x00, 0x00, 0x00,
  0x10, 0x00, 0x00, 0x00, 0x02, 0x00, 0x00, 0x00, 0x01, 0x00, 0x00, 0x00,
  0x10, 0x00, 0x00, 0x00, 0x02, 0x00, 0x00, 0x00, 0x0f, 0x00, 0x00, 0x00,
  0x04, 0x00, 0x00, 0x00, 0x52, 0xff, 0xff, 0xff, 0x24, 0x00, 0x00, 0x00,
  0x00, 0x00, 0x00, 0x05, 0x34, 0x00, 0x00, 0x00, 0x38, 0x00, 0x00, 0x00,
  0x03, 0x00, 0x00, 0x00, 0x00, 0x00, 0x0e, 0x00, 0x18, 0x00, 0x17, 0x00,
  0x10, 0x00, 0x0c, 0x00, 0x08, 0x00, 0x04, 0x00, 0x0e, 0x00, 0x00, 0x00,
  0x01, 0x00, 0x00, 0x00, 0x02, 0x00, 0x00, 0x00, 0x01, 0x00, 0x00, 0x00,
  0x02, 0x00, 0x00, 0x00, 0x00, 0x00, 0x00, 0x01, 0x01, 0x00, 0x00, 0x00,
  0x0f, 0x00, 0x00, 0x00, 0x01, 0x00, 0x00, 0x00, 0x0e, 0x00, 0x00, 0x00,
  0x42, 0xff, 0xff, 0xff, 0x10, 0x00, 0x00, 0x00, 0x00, 0x00, 0x00, 0x34,
  0x0c, 0x00, 0x00, 0x00, 0x10, 0x00, 0x00, 0x00, 0xf8, 0xeb, 0xff, 0xff,
  0x01, 0x00, 0x00, 0x00, 0x0e, 0x00, 0x00, 0x00, 0x02, 0x00, 0x00, 0x00,
  0x0d, 0x00, 0x00, 0x00, 0x03, 0x00, 0x00, 0x00, 0x00, 0x00, 0x0a, 0x00,
  0x10, 0x00, 0x0c, 0x00, 0x08, 0x00, 0x04, 0x00, 0x0a, 0x00, 0x00, 0x00,
  0x0c, 0x00, 0x00, 0x00, 0x10, 0x00, 0x00, 0x00, 0x02, 0x00, 0x00, 0x00,
  0x01, 0x00, 0x00, 0x00, 0x0d, 0x00, 0x00, 0x00, 0x02, 0x00, 0x00, 0x00,
  0x0c, 0x00, 0x00, 0x00, 0x02, 0x00, 0x00, 0x00, 0x00, 0x00, 0x0e, 0x00,
  0x18, 0x00, 0x14, 0x00, 0x10, 0x00, 0x0c, 0x00, 0x0b, 0x00, 0x04, 0x00,
  0x0e, 0x00, 0x00, 0x00, 0x20, 0x00, 0x00, 0x00, 0x00, 0x00, 0x00, 0x01,
  0x2c, 0x00, 0x00, 0x00, 0x30, 0x00, 0x00, 0x00, 0x01, 0x00, 0x00, 0x00,
  0x0c, 0x00, 0x14, 0x00, 0x13, 0x00, 0x0c, 0x00, 0x08, 0x00, 0x07, 0x00,
  0x0c, 0x00, 0x00, 0x00, 0x00, 0x00, 0x00, 0x01, 0x01, 0x00, 0x00, 0x00,
  0x01, 0x00, 0x00, 0x00, 0x00, 0x00, 0x00, 0x01, 0x01, 0x00, 0x00, 0x00,
  0x0c, 0x00, 0x00, 0x00, 0x03, 0x00, 0x00, 0x00, 0x0b, 0x00, 0x00, 0x00,
  0x0a, 0x00, 0x00, 0x00, 0x09, 0x00, 0x00, 0x00, 0x00, 0x00, 0x0e, 0x00,
  0x14, 0x00, 0x00, 0x00, 0x10, 0x00, 0x0c, 0x00, 0x0b, 0x00, 0x04, 0x00,
  0x0e, 0x00, 0x00, 0x00, 0x10, 0x00, 0x00, 0x00, 0x00, 0x00, 0x00, 0x34,
  0x0c, 0x00, 0x00, 0x00, 0x10, 0x00, 0x00, 0x00, 0xc4, 0xec, 0xff, 0xff,
  0x01, 0x00, 0x00, 0x00, 0x0b, 0x00, 0x00, 0x00, 0x02, 0x00, 0x00, 0x00,
  0x00, 0x00, 0x00, 0x00, 0x01, 0x00, 0x00, 0x00, 0x01, 0x00, 0x00, 0x00,
  0x13, 0x00, 0x00, 0x00, 0x01, 0x00, 0x00, 0x00, 0x00, 0x00, 0x00, 0x00,
  0x14, 0x00, 0x00, 0x00, 0x48, 0x13, 0x00, 0x00, 0xf0, 0x12, 0x00, 0x00,
  0x98, 0x12, 0x00, 0x00, 0x5c, 0x12, 0x00, 0x00, 0x1c, 0x12, 0x00, 0x00,
  0x4c, 0x11, 0x00, 0x00, 0x78, 0x10, 0x00, 0x00, 0x24, 0x0d, 0x00, 0x00,
  0xc8, 0x09, 0x00, 0x00, 0xf4, 0x07, 0x00, 0x00, 0x10, 0x06, 0x00, 0x00,
  0x6c, 0x05, 0x00, 0x00, 0x70, 0x04, 0x00, 0x00, 0xa0, 0x03, 0x00, 0x00,
  0xf8, 0x02, 0x00, 0x00, 0x5c, 0x02, 0x00, 0x00, 0xd8, 0x01, 0x00, 0x00,
  0x24, 0x01, 0x00, 0x00, 0x80, 0x00, 0x00, 0x00, 0x04, 0x00, 0x00, 0x00,
  0x1e, 0xed, 0xff, 0xff, 0x00, 0x00, 0x00, 0x01, 0x18, 0x00, 0x00, 0x00,
  0x20, 0x00, 0x00, 0x00, 0x3c, 0x00, 0x00, 0x00, 0x14, 0x00, 0x00, 0x00,
  0x00, 0x00, 0x00, 0x09, 0x50, 0x00, 0x00, 0x00, 0x02, 0x00, 0x00, 0x00,
  0xff, 0xff, 0xff, 0xff, 0x0a, 0x00, 0x00, 0x00, 0x04, 0xed, 0xff, 0xff,
  0x08, 0x00, 0x00, 0x00, 0x10, 0x00, 0x00, 0x00, 0x01, 0x00, 0x00, 0x00,
  0x80, 0xff, 0xff, 0xff, 0xff, 0xff, 0xff, 0xff, 0x01, 0x00, 0x00, 0x00,
  0x00, 0x00, 0x80, 0x3b, 0x1b, 0x00, 0x00, 0x00, 0x53, 0x74, 0x61, 0x74,
  0x65, 0x66, 0x75, 0x6c, 0x50, 0x61, 0x72, 0x74, 0x69, 0x74, 0x69, 0x6f,
  0x6e, 0x65, 0x64, 0x43, 0x61, 0x6c, 0x6c, 0x5f, 0x31, 0x3a, 0x30, 0x00,
  0x02, 0x00, 0x00, 0x00, 0x01, 0x00, 0x00, 0x00, 0x0a, 0x00, 0x00, 0x00,
  0x96, 0xed, 0xff, 0xff, 0x00, 0x00, 0x00, 0x01, 0x18, 0x00, 0x00, 0x00,
  0x20, 0x00, 0x00, 0x00, 0x40, 0x00, 0x00, 0x00, 0x13, 0x00, 0x00, 0x00,
  0x00, 0x00, 0x00, 0x09, 0x78, 0x00, 0x00, 0x00, 0x02, 0x00, 0x00, 0x00,
  0xff, 0xff, 0xff, 0xff, 0x0a, 0x00, 0x00, 0x00, 0x7c, 0xed, 0xff, 0xff,
  0x08, 0x00, 0x00, 0x00, 0x14, 0x00, 0x00, 0x00, 0x01, 0x00, 0x00, 0x00,
  0x5a, 0x00, 0x00, 0x00, 0x00, 0x00, 0x00, 0x00, 0x00, 0x00, 0x00, 0x00,
  0x01, 0x00, 0x00, 0x00, 0xde, 0xe9, 0x56, 0x3e, 0x3c, 0x00, 0x00, 0x00,
  0x73, 0x65, 0x71, 0x75, 0x65, 0x6e, 0x74, 0x69, 0x61, 0x6c, 0x5f, 0x31,
  0x2f, 0x64, 0x65, 0x6e, 0x73, 0x65, 0x5f, 0x31, 0x5f, 0x32, 0x2f, 0x4d,
  0x61, 0x74, 0x4d, 0x75, 0x6c, 0x3b, 0x73, 0x65, 0x71, 0x75, 0x65, 0x6e,
  0x74, 0x69, 0x61, 0x6c, 0x5f, 0x31, 0x2f, 0x64, 0x65, 0x6e, 0x73, 0x65,
  0x5f, 0x31, 0x5f, 0x32, 0x2f, 0x42, 0x69, 0x61, 0x73, 0x41, 0x64, 0x64,
  0x00, 0x00, 0x00, 0x00, 0x02, 0x00, 0x00, 0x00, 0x01, 0x00, 0x00, 0x00,
  0x0a, 0x00, 0x00, 0x00, 0x36, 0xee, 0xff, 0xff, 0x00, 0x00, 0x00, 0x01,
  0x18, 0x00, 0x00, 0x00, 0x20, 0x00, 0x00, 0x00, 0x3c, 0x00, 0x00, 0x00,
  0x12, 0x00, 0x00, 0x00, 0x00, 0x00, 0x00, 0x09, 0x88, 0x00, 0x00, 0x00,
  0x02, 0x00, 0x00, 0x00, 0xff, 0xff, 0xff, 0xff, 0x40, 0x00, 0x00, 0x00,
  0x1c, 0xee, 0xff, 0xff, 0x08, 0x00, 0x00, 0x00, 0x10, 0x00, 0x00, 0x00,
  0x01, 0x00, 0x00, 0x00, 0x80, 0xff, 0xff, 0xff, 0xff, 0xff, 0xff, 0xff,
  0x01, 0x00, 0x00, 0x00, 0x21, 0x3d, 0x7b, 0x3c, 0x52, 0x00, 0x00, 0x00,
  0x73, 0x65, 0x71, 0x75, 0x65, 0x6e, 0x74, 0x69, 0x61, 0x6c, 0x5f, 0x31,
  0x2f, 0x64, 0x65, 0x6e, 0x73, 0x65, 0x5f, 0x31, 0x2f, 0x4d, 0x61, 0x74,
  0x4d, 0x75, 0x6c, 0x3b, 0x73, 0x65, 0x71, 0x75, 0x65, 0x6e, 0x74, 0x69,
  0x61, 0x6c, 0x5f, 0x31, 0x2f, 0x64, 0x65, 0x6e, 0x73, 0x65, 0x5f, 0x31,
  0x2f, 0x52, 0x65, 0x6c, 0x75, 0x3b, 0x73, 0x65, 0x71, 0x75, 0x65, 0x6e,
  0x74, 0x69, 0x61, 0x6c, 0x5f, 0x31, 0x2f, 0x64, 0x65, 0x6e, 0x73, 0x65,
  0x5f, 0x31, 0x2f, 0x42, 0x69, 0x61, 0x73, 0x41, 0x64, 0x64, 0x00, 0x00,
  0x02, 0x00, 0x00, 0x00, 0x01, 0x00, 0x00, 0x00, 0x40, 0x00, 0x00, 0x00,
  0xe6, 0xee, 0xff, 0xff, 0x00, 0x00, 0x00, 0x01, 0x18, 0x00, 0x00, 0x00,
  0x20, 0x00, 0x00, 0x00, 0x40, 0x00, 0x00, 0x00, 0x11, 0x00, 0x00, 0x00,
  0x00, 0x00, 0x00, 0x09, 0x58, 0x00, 0x00, 0x00, 0x02, 0x00, 0x00, 0x00,
  0xff, 0xff, 0xff, 0xff, 0x40, 0x00, 0x00, 0x00, 0xcc, 0xee, 0xff, 0xff,
  0x08, 0x00, 0x00, 0x00, 0x14, 0x00, 0x00, 0x00, 0x01, 0x00, 0x00, 0x00,
  0x80, 0xff, 0xff, 0xff, 0xff, 0xff, 0xff, 0xff, 0x00, 0x00, 0x00, 0x00,
  0x01, 0x00, 0x00, 0x00, 0x15, 0x91, 0xcd, 0x3b, 0x1e, 0x00, 0x00, 0x00,
  0x73, 0x65, 0x71, 0x75, 0x65, 0x6e, 0x74, 0x69, 0x61, 0x6c, 0x5f, 0x31,
  0x2f, 0x66, 0x6c, 0x61, 0x74, 0x74, 0x65, 0x6e, 0x5f, 0x31, 0x2f, 0x52,
  0x65, 0x73, 0x68, 0x61, 0x70, 0x65, 0x00, 0x00, 0x02, 0x00, 0x00, 0x00,
  0x01, 0x00, 0x00, 0x00, 0x40, 0x00, 0x00, 0x00, 0x66, 0xef, 0xff, 0xff,
  0x00, 0x00, 0x00, 0x01, 0x18, 0x00, 0x00, 0x00, 0x28, 0x00, 0x00, 0x00,
  0x48, 0x00, 0x00, 0x00, 0x10, 0x00, 0x00, 0x00, 0x00, 0x00, 0x00, 0x09,
  0x68, 0x00, 0x00, 0x00, 0x04, 0x00, 0x00, 0x00, 0xff, 0xff, 0xff, 0xff,
  0x01, 0x00, 0x00, 0x00, 0x02, 0x00, 0x00, 0x00, 0x20, 0x00, 0x00, 0x00,
  0x54, 0xef, 0xff, 0xff, 0x08, 0x00, 0x00, 0x00, 0x14, 0x00, 0x00, 0x00,
  0x01, 0x00, 0x00, 0x00, 0x80, 0xff, 0xff, 0xff, 0xff, 0xff, 0xff, 0xff,
  0x00, 0x00, 0x00, 0x00, 0x01, 0x00, 0x00, 0x00, 0x15, 0x91, 0xcd, 0x3b,
  0x26, 0x00, 0x00, 0x00, 0x73, 0x65, 0x71, 0x75, 0x65, 0x6e, 0x74, 0x69,
  0x61, 0x6c, 0x5f, 0x31, 0x2f, 0x6d, 0x61, 0x78, 0x5f, 0x70, 0x6f, 0x6f,
  0x6c, 0x69, 0x6e, 0x67, 0x31, 0x64, 0x5f, 0x31, 0x2f, 0x4d, 0x61, 0x78,
  0x50, 0x6f, 0x6f, 0x6c, 0x31, 0x64, 0x00, 0x00, 0x04, 0x00, 0x00, 0x00,
  0x01, 0x00, 0x00, 0x00, 0x01, 0x00, 0x00, 0x00, 0x02, 0x00, 0x00, 0x00,
  0x20, 0x00, 0x00, 0x00, 0xfe, 0xef, 0xff, 0xff, 0x00, 0x00, 0x00, 0x01,
  0x18, 0x00, 0x00, 0x00, 0x28, 0x00, 0x00, 0x00, 0x48, 0x00, 0x00, 0x00,
  0x0f, 0x00, 0x00, 0x00, 0x00, 0x00, 0x00, 0x09, 0x74, 0x00, 0x00, 0x00,
  0x04, 0x00, 0x00, 0x00, 0xff, 0xff, 0xff, 0xff, 0x01, 0x00, 0x00, 0x00,
  0x04, 0x00, 0x00, 0x00, 0x20, 0x00, 0x00, 0x00, 0xec, 0xef, 0xff, 0xff,
  0x08, 0x00, 0x00, 0x00, 0x14, 0x00, 0x00, 0x00, 0x01, 0x00, 0x00, 0x00,
  0x80, 0xff, 0xff, 0xff, 0xff, 0xff, 0xff, 0xff, 0x00, 0x00, 0x00, 0x00,
  0x01, 0x00, 0x00, 0x00, 0x15, 0x91, 0xcd, 0x3b, 0x31, 0x00, 0x00, 0x00,
  0x73, 0x65, 0x71, 0x75, 0x65, 0x6e, 0x74, 0x69, 0x61, 0x6c, 0x5f, 0x31,
  0x2f, 0x6d, 0x61, 0x78, 0x5f, 0x70, 0x6f, 0x6f, 0x6c, 0x69, 0x6e, 0x67,
  0x31, 0x64, 0x5f, 0x31, 0x2f, 0x4d, 0x61, 0x78, 0x50, 0x6f, 0x6f, 0x6c,
  0x31, 0x64, 0x2f, 0x45, 0x78, 0x70, 0x61, 0x6e, 0x64, 0x44, 0x69, 0x6d,
  0x73, 0x00, 0x00, 0x00, 0x04, 0x00, 0x00, 0x00, 0x01, 0x00, 0x00, 0x00,
  0x01, 0x00, 0x00, 0x00, 0x04, 0x00, 0x00, 0x00, 0x20, 0x00, 0x00, 0x00,
  0xa2, 0xf0, 0xff, 0xff, 0x00, 0x00, 0x00, 0x01, 0x18, 0x00, 0x00, 0x00,
  0x24, 0x00, 0x00, 0x00, 0x44, 0x00, 0x00, 0x00, 0x0e, 0x00, 0x00, 0x00,
  0x00, 0x00, 0x00, 0x09, 0xa0, 0x00, 0x00, 0x00, 0x03, 0x00, 0x00, 0x00,
  0xff, 0xff, 0xff, 0xff, 0x04, 0x00, 0x00, 0x00, 0x20, 0x00, 0x00, 0x00,
  0x8c, 0xf0, 0xff, 0xff, 0x08, 0x00, 0x00, 0x00, 0x14, 0x00, 0x00, 0x00,
  0x01, 0x00, 0x00, 0x00, 0x80, 0xff, 0xff, 0xff, 0xff, 0xff, 0xff, 0xff,
  0x00, 0x00, 0x00, 0x00, 0x01, 0x00, 0x00, 0x00, 0x15, 0x91, 0xcd, 0x3b,
  0x63, 0x00, 0x00, 0x00, 0x73, 0x65, 0x71, 0x75, 0x65, 0x6e, 0x74, 0x69,
  0x61, 0x6c, 0x5f, 0x31, 0x2f, 0x63, 0x6f, 0x6e, 0x76, 0x31, 0x64, 0x5f,
  0x31, 0x2f, 0x52, 0x65, 0x6c, 0x75, 0x3b, 0x73, 0x65, 0x71, 0x75, 0x65,
  0x6e, 0x74, 0x69, 0x61, 0x6c, 0x5f, 0x31, 0x2f, 0x63, 0x6f, 0x6e, 0x76,
  0x31, 0x64, 0x5f, 0x31, 0x2f, 0x42, 0x69, 0x61, 0x73, 0x41, 0x64, 0x64,
  0x3b, 0x73, 0x65, 0x71, 0x75, 0x65, 0x6e, 0x74, 0x69, 0x61, 0x6c, 0x5f,
  0x31, 0x2f, 0x63, 0x6f, 0x6e, 0x76, 0x31, 0x64, 0x5f, 0x31, 0x2f, 0x63,
  0x6f, 0x6e, 0x76, 0x6f, 0x6c, 0x75, 0x74, 0x69, 0x6f, 0x6e, 0x2f, 0x53,
  0x71, 0x75, 0x65, 0x65, 0x7a, 0x65, 0x3b, 0x00, 0x03, 0x00, 0x00, 0x00,
  0x01, 0x00, 0x00, 0x00, 0x04, 0x00, 0x00, 0x00, 0x20, 0x00, 0x00, 0x00,
  0x6e, 0xf1, 0xff, 0xff, 0x00, 0x00, 0x00, 0x01, 0x18, 0x00, 0x00, 0x00,
  0x28, 0x00, 0x00, 0x00, 0x48, 0x00, 0x00, 0x00, 0x0d, 0x00, 0x00, 0x00,
  0x00, 0x00, 0x00, 0x09, 0xc8, 0x00, 0x00, 0x00, 0x04, 0x00, 0x00, 0x00,
  0xff, 0xff, 0xff, 0xff, 0x01, 0x00, 0x00, 0x00, 0x04, 0x00, 0x00, 0x00,
  0x20, 0x00, 0x00, 0x00, 0x5c, 0xf1, 0xff, 0xff, 0x08, 0x00, 0x00, 0x00,
  0x14, 0x00, 0x00, 0x00, 0x01, 0x00, 0x00, 0x00, 0x80, 0xff, 0xff, 0xff,
  0xff, 0xff, 0xff, 0xff, 0x00, 0x00, 0x00, 0x00, 0x01, 0x00, 0x00, 0x00,
  0x15, 0x91, 0xcd, 0x3b, 0x85, 0x00, 0x00, 0x00, 0x73, 0x65, 0x71, 0x75,
  0x65, 0x6e, 0x74, 0x69, 0x61, 0x6c, 0x5f, 0x31, 0x2f, 0x63, 0x6f, 0x6e,
  0x76, 0x31, 0x64, 0x5f, 0x31, 0x2f, 0x52, 0x65, 0x6c, 0x75, 0x3b, 0x73,
  0x65, 0x71, 0x75, 0x65, 0x6e, 0x74, 0x69, 0x61, 0x6c, 0x5f, 0x31, 0x2f,
  0x63, 0x6f, 0x6e, 0x76, 0x31, 0x64, 0x5f, 0x31, 0x2f, 0x42, 0x69, 0x61,
  0x73, 0x41, 0x64, 0x64, 0x3b, 0x73, 0x65, 0x71, 0x75, 0x65, 0x6e, 0x74,
  0x69, 0x61, 0x6c, 0x5f, 0x31, 0x2f, 0x63, 0x6f, 0x6e, 0x76, 0x31, 0x64,
  0x5f, 0x31, 0x2f, 0x63, 0x6f, 0x6e, 0x76, 0x6f, 0x6c, 0x75, 0x74, 0x69,
  0x6f, 0x6e, 0x2f, 0x53, 0x71, 0x75, 0x65, 0x65, 0x7a, 0x65, 0x3b, 0x3b,
  0x73, 0x65, 0x71, 0x75, 0x65, 0x6e, 0x74, 0x69, 0x61, 0x6c, 0x5f, 0x31,
  0x2f, 0x63, 0x6f, 0x6e, 0x76, 0x31, 0x64, 0x5f, 0x31, 0x2f, 0x63, 0x6f,
  0x6e, 0x76, 0x6f, 0x6c, 0x75, 0x74, 0x69, 0x6f, 0x6e, 0x00, 0x00, 0x00,
  0x04, 0x00, 0x00, 0x00, 0x01, 0x00, 0x00, 0x00, 0x01, 0x00, 0x00, 0x00,
  0x04, 0x00, 0x00, 0x00, 0x20, 0x00, 0x00, 0x00, 0x66, 0xf2, 0xff, 0xff,
  0x00, 0x00, 0x00, 0x01, 0x18, 0x00, 0x00, 0x00, 0x28, 0x00, 0x00, 0x00,
  0x48, 0x00, 0x00, 0x00, 0x0c, 0x00, 0x00, 0x00, 0x00, 0x00, 0x00, 0x09,
  0x70, 0x00, 0x00, 0x00, 0x04, 0x00, 0x00, 0x00, 0xff, 0xff, 0xff, 0xff,
  0x01, 0x00, 0x00, 0x00, 0x06, 0x00, 0x00, 0x00, 0x01, 0x00, 0x00, 0x00,
  0x54, 0xf2, 0xff, 0xff, 0x08, 0x00, 0x00, 0x00, 0x14, 0x00, 0x00, 0x00,
  0x01, 0x00, 0x00, 0x00, 0xb2, 0xff, 0xff, 0xff, 0xff, 0xff, 0xff, 0xff,
  0x00, 0x00, 0x00, 0x00, 0x01, 0x00, 0x00, 0x00, 0x7e, 0xf9, 0x1f, 0x3c,
  0x2c, 0x00, 0x00, 0x00, 0x73, 0x65, 0x71, 0x75, 0x65, 0x6e, 0x74, 0x69,
  0x61, 0x6c, 0x5f, 0x31, 0x2f, 0x63, 0x6f, 0x6e, 0x76, 0x31, 0x64, 0x5f,
  0x31, 0x2f, 0x63, 0x6f, 0x6e, 0x76, 0x6f, 0x6c, 0x75, 0x74, 0x69, 0x6f,
  0x6e, 0x2f, 0x45, 0x78, 0x70, 0x61, 0x6e, 0x64, 0x44, 0x69, 0x6d, 0x73,
  0x00, 0x00, 0x00, 0x00, 0x04, 0x00, 0x00, 0x00, 0x01, 0x00, 0x00, 0x00,
  0x01, 0x00, 0x00, 0x00, 0x06, 0x00, 0x00, 0x00, 0x01, 0x00, 0x00, 0x00,
  0x5a, 0xf3, 0xff, 0xff, 0x00, 0x00, 0x00, 0x01, 0x14, 0x00, 0x00, 0x00,
  0xa8, 0x01, 0x00, 0x00, 0x0b, 0x00, 0x00, 0x00, 0x00, 0x00, 0x00, 0x09,
  0xb4, 0x01, 0x00, 0x00, 0xdc, 0xf2, 0xff, 0xff, 0x08, 0x00, 0x00, 0x00,
  0x0c, 0x01, 0x00, 0x00, 0x20, 0x00, 0x00, 0x00, 0x00, 0x00, 0x00, 0x00,
  0x00, 0x00, 0x00, 0x00, 0x00, 0x00, 0x00, 0x00, 0x00, 0x00, 0x00, 0x00,
  0x00, 0x00, 0x00, 0x00, 0x00, 0x00, 0x00, 0x00, 0x00, 0x00, 0x00, 0x00,
  0x00, 0x00, 0x00, 0x00, 0x00, 0x00, 0x00, 0x00, 0x00, 0x00, 0x00, 0x00,
  0x00, 0x00, 0x00, 0x00, 0x00, 0x00, 0x00, 0x00, 0x00, 0x00, 0x00, 0x00,
  0x00, 0x00, 0x00, 0x00, 0x00, 0x00, 0x00, 0x00, 0x00, 0x00, 0x00, 0x00,
  0x00, 0x00, 0x00, 0x00, 0x00, 0x00, 0x00, 0x00, 0x00, 0x00, 0x00, 0x00,
  0x00, 0x00, 0x00, 0x00, 0x00, 0x00, 0x00, 0x00, 0x00, 0x00, 0x00, 0x00,
  0x00, 0x00, 0x00, 0x00, 0x00, 0x00, 0x00, 0x00, 0x00, 0x00, 0x00, 0x00,
  0x00, 0x00, 0x00, 0x00, 0x00, 0x00, 0x00, 0x00, 0x00, 0x00, 0x00, 0x00,
  0x00, 0x00, 0x00, 0x00, 0x00, 0x00, 0x00, 0x00, 0x00, 0x00, 0x00, 0x00,
  0x00, 0x00, 0x00, 0x00, 0x00, 0x00, 0x00, 0x00, 0x00, 0x00, 0x00, 0x00,
  0x00, 0x00, 0x00, 0x00, 0x00, 0x00, 0x00, 0x00, 0x00, 0x00, 0x00, 0x00,
  0x00, 0x00, 0x00, 0x00, 0x00, 0x00, 0x00, 0x00, 0x00, 0x00, 0x00, 0x00,
  0x00, 0x00, 0x00, 0x00, 0x00, 0x00, 0x00, 0x00, 0x00, 0x00, 0x00, 0x00,
  0x00, 0x00, 0x00, 0x00, 0x00, 0x00, 0x00, 0x00, 0x00, 0x00, 0x00, 0x00,
  0x00, 0x00, 0x00, 0x00, 0x00, 0x00, 0x00, 0x00, 0x00, 0x00, 0x00, 0x00,
  0x00, 0x00, 0x00, 0x00, 0x00, 0x00, 0x00, 0x00, 0x00, 0x00, 0x00, 0x00,
  0x00, 0x00, 0x00, 0x00, 0x00, 0x00, 0x00, 0x00, 0x00, 0x00, 0x00, 0x00,
  0x00, 0x00, 0x00, 0x00, 0x00, 0x00, 0x00, 0x00, 0x00, 0x00, 0x00, 0x00,
  0x00, 0x00, 0x00, 0x00, 0x00, 0x00, 0x00, 0x00, 0x00, 0x00, 0x00, 0x00,
  0x00, 0x00, 0x00, 0x00, 0x00, 0x00, 0x00, 0x00, 0x00, 0x00, 0x00, 0x00,
  0x00, 0x00, 0x00, 0x00, 0x20, 0x00, 0x00, 0x00, 0xb3, 0xb8, 0xa9, 0x3b,
  0x4e, 0xd2, 0x6e, 0x3b, 0xae, 0x57, 0xbe, 0x3b, 0x9b, 0xd7, 0xbe, 0x3c,
  0x63, 0x22, 0x89, 0x3b, 0xfe, 0xcb, 0xd0, 0x3b, 0x6a, 0xee, 0x41, 0x3b,
  0x52, 0x83, 0x91, 0x3c, 0x8e, 0x83, 0xbd, 0x3b, 0xb1, 0x9e, 0x64, 0x3b,
  0xc3, 0x1b, 0xa3, 0x3c, 0x2b, 0x3e, 0xee, 0x3b, 0xfc, 0xb7, 0x67, 0x3c,
  0xe3, 0x71, 0xb1, 0x3c, 0xb0, 0xbd, 0xe7, 0x3c, 0x8a, 0xd6, 0x32, 0x3c,
  0x7c, 0x80, 0x04, 0x3b, 0xa7, 0xb8, 0xf8, 0x3b, 0xb1, 0x4d, 0x83, 0x3b,
  0x9d, 0x2b, 0xb6, 0x3c, 0xbd, 0x1b, 0x9d, 0x3b, 0x1f, 0xf2, 0x8b, 0x3b,
  0x3e, 0xde, 0xaf, 0x3c, 0x5c, 0xb8, 0x92, 0x3b, 0x0d, 0xe1, 0x3d, 0x3b,
  0x50, 0xc1, 0xd4, 0x3b, 0xf5, 0x14, 0xa9, 0x3c, 0x86, 0xfc, 0x39, 0x3c,
  0x9e, 0xd3, 0x09, 0x3c, 0x81, 0xd5, 0x8c, 0x3c, 0xb5, 0x84, 0xf3, 0x3b,
  0x77, 0x43, 0xa0, 0x3b, 0x12, 0x00, 0x00, 0x00, 0x74, 0x66, 0x6c, 0x2e,
  0x70, 0x73, 0x65, 0x75, 0x64, 0x6f, 0x5f, 0x71, 0x63, 0x6f, 0x6e, 0x73,
  0x74, 0x35, 0x00, 0x00, 0x04, 0x00, 0x00, 0x00, 0x20, 0x00, 0x00, 0x00,
  0x01, 0x00, 0x00, 0x00, 0x03, 0x00, 0x00, 0x00, 0x01, 0x00, 0x00, 0x00,
  0x3a, 0xf5, 0xff, 0xff, 0x00, 0x00, 0x00, 0x01, 0x14, 0x00, 0x00, 0x00,
  0xa4, 0x01, 0x00, 0x00, 0x0a, 0x00, 0x00, 0x00, 0x00, 0x00, 0x00, 0x02,
  0xb0, 0x01, 0x00, 0x00, 0xbc, 0xf4, 0xff, 0xff, 0x08, 0x00, 0x00, 0x00,
  0x08, 0x01, 0x00, 0x00, 0x20, 0x00, 0x00, 0x00, 0x00, 0x00, 0x00, 0x00,
  0x00, 0x00, 0x00, 0x00, 0x00, 0x00, 0x00, 0x00, 0x00, 0x00, 0x00, 0x00,
  0x00, 0x00, 0x00, 0x00, 0x00, 0x00, 0x00, 0x00, 0x00, 0x00, 0x00, 0x00,
  0x00, 0x00, 0x00, 0x00, 0x00, 0x00, 0x00, 0x00, 0x00, 0x00, 0x00, 0x00,
  0x00, 0x00, 0x00, 0x00, 0x00, 0x00, 0x00, 0x00, 0x00, 0x00, 0x00, 0x00,
  0x00, 0x00, 0x00, 0x00, 0x00, 0x00, 0x00, 0x00, 0x00, 0x00, 0x00, 0x00,
  0x00, 0x00, 0x00, 0x00, 0x00, 0x00, 0x00, 0x00, 0x00, 0x00, 0x00, 0x00,
  0x00, 0x00, 0x00, 0x00, 0x00, 0x00, 0x00, 0x00, 0x00, 0x00, 0x00, 0x00,
  0x00, 0x00, 0x00, 0x00, 0x00, 0x00, 0x00, 0x00, 0x00, 0x00, 0x00, 0x00,
  0x00, 0x00, 0x00, 0x00, 0x00, 0x00, 0x00, 0x00, 0x00, 0x00, 0x00, 0x00,
  0x00, 0x00, 0x00, 0x00, 0x00, 0x00, 0x00, 0x00, 0x00, 0x00, 0x00, 0x00,
  0x00, 0x00, 0x00, 0x00, 0x00, 0x00, 0x00, 0x00, 0x00, 0x00, 0x00, 0x00,
  0x00, 0x00, 0x00, 0x00, 0x00, 0x00, 0x00, 0x00, 0x00, 0x00, 0x00, 0x00,
  0x00, 0x00, 0x00, 0x00, 0x00, 0x00, 0x00, 0x00, 0x00, 0x00, 0x00, 0x00,
  0x00, 0x00, 0x00, 0x00, 0x00, 0x00, 0x00, 0x00, 0x00, 0x00, 0x00, 0x00,
  0x00, 0x00, 0x00, 0x00, 0x00, 0x00, 0x00, 0x00, 0x00, 0x00, 0x00, 0x00,
  0x00, 0x00, 0x00, 0x00, 0x00, 0x00, 0x00, 0x00, 0x00, 0x00, 0x00, 0x00,
  0x00, 0x00, 0x00, 0x00, 0x00, 0x00, 0x00, 0x00, 0x00, 0x00, 0x00, 0x00,
  0x00, 0x00, 0x00, 0x00, 0x00, 0x00, 0x00, 0x00, 0x00, 0x00, 0x00, 0x00,
  0x00, 0x00, 0x00, 0x00, 0x00, 0x00, 0x00, 0x00, 0x00, 0x00, 0x00, 0x00,
  0x00, 0x00, 0x00, 0x00, 0x00, 0x00, 0x00, 0x00, 0x00, 0x00, 0x00, 0x00,
  0x00, 0x00, 0x00, 0x00, 0x00, 0x00, 0x00, 0x00, 0x00, 0x00, 0x00, 0x00,
  0x20, 0x00, 0x00, 0x00, 0x3f, 0x1e, 0x54, 0x38, 0x5f, 0x3d, 0x15, 0x38,
  0xec, 0xe3, 0x6d, 0x38, 0xce, 0x83, 0x6e, 0x39, 0x03, 0x64, 0x2b, 0x38,
  0x30, 0x7a, 0x82, 0x38, 0x28, 0x60, 0xf2, 0x37, 0xc1, 0xdc, 0x35, 0x39,
  0xcf, 0xda, 0x6c, 0x38, 0x5f, 0xdd, 0x0e, 0x38, 0x69, 0xda, 0x4b, 0x39,
  0xcc, 0xe0, 0x94, 0x38, 0x1a, 0xcd, 0x10, 0x39, 0x56, 0xc5, 0x5d, 0x39,
  0xaa, 0xd0, 0x90, 0x39, 0x15, 0x83, 0xdf, 0x38, 0xde, 0x99, 0xa5, 0x37,
  0x16, 0x6d, 0x9b, 0x38, 0x70, 0x1a, 0x24, 0x38, 0x41, 0xad, 0x63, 0x39,
  0xaf, 0x5a, 0x44, 0x38, 0x89, 0xe7, 0x2e, 0x38, 0xdc, 0xcc, 0x5b, 0x39,
  0xfd, 0x5e, 0x37, 0x38, 0xa9, 0x4f, 0xed, 0x37, 0x69, 0xf3, 0x84, 0x38,
  0x9a, 0x51, 0x53, 0x39, 0x33, 0x72, 0xe8, 0x38, 0x84, 0x41, 0xac, 0x38,
  0xb8, 0x03, 0x30, 0x39, 0xc0, 0x2c, 0x98, 0x38, 0x2f, 0x4c, 0x48, 0x38,
  0x12, 0x00, 0x00, 0x00, 0x74, 0x66, 0x6c, 0x2e, 0x70, 0x73, 0x65, 0x75,
  0x64, 0x6f, 0x5f, 0x71, 0x63, 0x6f, 0x6e, 0x73, 0x74, 0x34, 0x00, 0x00,
  0x01, 0x00, 0x00, 0x00, 0x20, 0x00, 0x00, 0x00, 0x0a, 0xf7, 0xff, 0xff,
  0x00, 0x00, 0x00, 0x01, 0x14, 0x00, 0x00, 0x00, 0x28, 0x03, 0x00, 0x00,
  0x09, 0x00, 0x00, 0x00, 0x00, 0x00, 0x00, 0x09, 0x34, 0x03, 0x00, 0x00,
  0x8c, 0xf6, 0xff, 0xff, 0x08, 0x00, 0x00, 0x00, 0x0c, 0x02, 0x00, 0x00,
  0x40, 0x00, 0x00, 0x00, 0x00, 0x00, 0x00, 0x00, 0x00, 0x00, 0x00, 0x00,
  0x00, 0x00, 0x00, 0x00, 0x00, 0x00, 0x00, 0x00, 0x00, 0x00, 0x00, 0x00,
  0x00, 0x00, 0x00, 0x00, 0x00, 0x00, 0x00, 0x00, 0x00, 0x00, 0x00, 0x00,
  0x00, 0x00, 0x00, 0x00, 0x00, 0x00, 0x00, 0x00, 0x00, 0x00, 0x00, 0x00,
  0x00, 0x00, 0x00, 0x00, 0x00, 0x00, 0x00, 0x00, 0x00, 0x00, 0x00, 0x00,
  0x00, 0x00, 0x00, 0x00, 0x00, 0x00, 0x00, 0x00, 0x00, 0x00, 0x00, 0x00,
  0x00, 0x00, 0x00, 0x00, 0x00, 0x00, 0x00, 0x00, 0x00, 0x00, 0x00, 0x00,
  0x00, 0x00, 0x00, 0x00, 0x00, 0x00, 0x00, 0x00, 0x00, 0x00, 0x00, 0x00,
  0x00, 0x00, 0x00, 0x00, 0x00, 0x00, 0x00, 0x00, 0x00, 0x00, 0x00, 0x00,
  0x00, 0x00, 0x00, 0x00, 0x00, 0x00, 0x00, 0x00, 0x00, 0x00, 0x00, 0x00,
  0x00, 0x00, 0x00, 0x00, 0x00, 0x00, 0x00, 0x00, 0x00, 0x00, 0x00, 0x00,
  0x00, 0x00, 0x00, 0x00, 0x00, 0x00, 0x00, 0x00, 0x00, 0x00, 0x00, 0x00,
  0x00, 0x00, 0x00, 0x00, 0x00, 0x00, 0x00, 0x00, 0x00, 0x00, 0x00, 0x00,
  0x00, 0x00, 0x00, 0x00, 0x00, 0x00, 0x00, 0x00, 0x00, 0x00, 0x00, 0x00,
  0x00, 0x00, 0x00, 0x00, 0x00, 0x00, 0x00, 0x00, 0x00, 0x00, 0x00, 0x00,
  0x00, 0x00, 0x00, 0x00, 0x00, 0x00, 0x00, 0x00, 0x00, 0x00, 0x00, 0x00,
  0x00, 0x00, 0x00, 0x00, 0x00, 0x00, 0x00, 0x00, 0x00, 0x00, 0x00, 0x00,
  0x00, 0x00, 0x00, 0x00, 0x00, 0x00, 0x00, 0x00, 0x00, 0x00, 0x00, 0x00,
  0x00, 0x00, 0x00, 0x00, 0x00, 0x00, 0x00, 0x00, 0x00, 0x00, 0x00, 0x00,
  0x00, 0x00, 0x00, 0x00, 0x00, 0x00, 0x00, 0x00, 0x00, 0x00, 0x00, 0x00,
  0x00, 0x00, 0x00, 0x00, 0x00, 0x00, 0x00, 0x00, 0x00, 0x00, 0x00, 0x00,
  0x00, 0x00, 0x00, 0x00, 0x00, 0x00, 0x00, 0x00, 0x00, 0x00, 0x00, 0x00,
  0x00, 0x00, 0x00, 0x00, 0x00, 0x00, 0x00, 0x00, 0x00, 0x00, 0x00, 0x00,
  0x00, 0x00, 0x00, 0x00, 0x00, 0x00, 0x00, 0x00, 0x00, 0x00, 0x00, 0x00,
  0x00, 0x00, 0x00, 0x00, 0x00, 0x00, 0x00, 0x00, 0x00, 0x00, 0x00, 0x00,
  0x00, 0x00, 0x00, 0x00, 0x00, 0x00, 0x00, 0x00, 0x00, 0x00, 0x00, 0x00,
  0x00, 0x00, 0x00, 0x00, 0x00, 0x00, 0x00, 0x00, 0x00, 0x00, 0x00, 0x00,
  0x00, 0x00, 0x00, 0x00, 0x00, 0x00, 0x00, 0x00, 0x00, 0x00, 0x00, 0x00,
  0x00, 0x00, 0x00, 0x00, 0x00, 0x00, 0x00, 0x00, 0x00, 0x00, 0x00, 0x00,
  0x00, 0x00, 0x00, 0x00, 0x00, 0x00, 0x00, 0x00, 0x00, 0x00, 0x00, 0x00,
  0x00, 0x00, 0x00, 0x00, 0x00, 0x00, 0x00, 0x00, 0x00, 0x00, 0x00, 0x00,
  0x00, 0x00, 0x00, 0x00, 0x00, 0x00, 0x00, 0x00, 0x00, 0x00, 0x00, 0x00,
  0x00, 0x00, 0x00, 0x00, 0x00, 0x00, 0x00, 0x00, 0x00, 0x00, 0x00, 0x00,
  0x00, 0x00, 0x00, 0x00, 0x00, 0x00, 0x00, 0x00, 0x00, 0x00, 0x00, 0x00,
  0x00, 0x00, 0x00, 0x00, 0x00, 0x00, 0x00, 0x00, 0x00, 0x00, 0x00, 0x00,
  0x00, 0x00, 0x00, 0x00, 0x00, 0x00, 0x00, 0x00, 0x00, 0x00, 0x00, 0x00,
  0x00, 0x00, 0x00, 0x00, 0x00, 0x00, 0x00, 0x00, 0x00, 0x00, 0x00, 0x00,
  0x00, 0x00, 0x00, 0x00, 0x00, 0x00, 0x00, 0x00, 0x00, 0x00, 0x00, 0x00,
  0x00, 0x00, 0x00, 0x00, 0x00, 0x00, 0x00, 0x00, 0x00, 0x00, 0x00, 0x00,
  0x00, 0x00, 0x00, 0x00, 0x00, 0x00, 0x00, 0x00, 0x00, 0x00, 0x00, 0x00,
  0x00, 0x00, 0x00, 0x00, 0x00, 0x00, 0x00, 0x00, 0x00, 0x00, 0x00, 0x00,
  0x00, 0x00, 0x00, 0x00, 0x00, 0x00, 0x00, 0x00, 0x00, 0x00, 0x00, 0x00,
  0x00, 0x00, 0x00, 0x00, 0x00, 0x00, 0x00, 0x00, 0x00, 0x00, 0x00, 0x00,
  0x00, 0x00, 0x00, 0x00, 0x40, 0x00, 0x00, 0x00, 0x6f, 0xb2, 0xa3, 0x3c,
  0xf6, 0x22, 0x40, 0x3c, 0x84, 0x78, 0xf5, 0x3a, 0x1e, 0xf8, 0x22, 0x3c,
  0xe6, 0x78, 0x8e, 0x3b, 0xdb, 0x99, 0x9d, 0x3c, 0x60, 0x28, 0x12, 0x3c,
  0x74, 0x5b, 0xeb, 0x3a, 0x23, 0xd9, 0xa1, 0x3c, 0x9a, 0xe4, 0x9a, 0x3c,
  0xd2, 0x4d, 0xd9, 0x3b, 0x8a, 0xa7, 0x05, 0x3b, 0x0c, 0x54, 0xee, 0x3c,
  0x61, 0xad, 0x23, 0x3c, 0xa8, 0xe1, 0x34, 0x3c, 0x57, 0xb6, 0x0e, 0x3c,
  0x56, 0x15, 0x83, 0x3b, 0x6d, 0x3f, 0xd8, 0x3a, 0xb3, 0x15, 0x8c, 0x3c,
  0xa8, 0x39, 0x58, 0x3c, 0x82, 0x85, 0xdc, 0x3a, 0x2c, 0x0d, 0x90, 0x3b,
  0x13, 0x58, 0x08, 0x3d, 0x9e, 0x2c, 0xc9, 0x3c, 0x99, 0xbe, 0x9c, 0x3c,
  0xea, 0x1e, 0x2e, 0x3c, 0x29, 0xcc, 0x35, 0x3c, 0x89, 0x94, 0x96, 0x3c,
  0xfb, 0x13, 0xb3, 0x3b, 0x97, 0x41, 0x07, 0x3c, 0xed, 0x95, 0x1a, 0x3c,
  0x88, 0x1b, 0x8e, 0x3c, 0xdb, 0xf5, 0x07, 0x3b, 0xa1, 0xe7, 0x3e, 0x3c,
  0x41, 0xc4, 0xe7, 0x3c, 0x4e, 0xeb, 0xef, 0x3c, 0x0b, 0x33, 0xae, 0x3c,
  0xf1, 0xdd, 0xf5, 0x3a, 0xf5, 0x40, 0x83, 0x3c, 0x50, 0xd4, 0x01, 0x3b,
  0xe3, 0x2a, 0x39, 0x3d, 0x88, 0xae, 0x89, 0x3c, 0xc3, 0x3c, 0x45, 0x3c,
  0x3d, 0x09, 0xbf, 0x3c, 0x65, 0x34, 0x02, 0x3d, 0xd0, 0x75, 0x22, 0x3c,
  0x13, 0x0b, 0x04, 0x3d, 0x1d, 0x1e, 0xed, 0x3c, 0xe8, 0x65, 0x0f, 0x3c,
  0xe9, 0x6a, 0x7c, 0x3c, 0x42, 0xa2, 0x37, 0x3c, 0xb8, 0xd0, 0xdf, 0x3a,
  0xc5, 0xa4, 0x8b, 0x3d, 0x97, 0x0e, 0xc2, 0x3b, 0x4b, 0x0d, 0xf0, 0x3c,
  0x6d, 0x89, 0x46, 0x3c, 0x8b, 0x27, 0xc2, 0x3c, 0x76, 0x1b, 0x34, 0x3c,
  0x1e, 0x7d, 0x7f, 0x3d, 0x3e, 0x19, 0xe4, 0x3c, 0x1a, 0xda, 0x03, 0x3b,
  0xe8, 0x84, 0xfe, 0x3a, 0x93, 0x40, 0xb5, 0x3c, 0x1f, 0x7b, 0x88, 0x3c,
  0x12, 0x00, 0x00, 0x00, 0x74, 0x66, 0x6c, 0x2e, 0x70, 0x73, 0x65, 0x75,
  0x64, 0x6f, 0x5f, 0x71, 0x63, 0x6f, 0x6e, 0x73, 0x74, 0x33, 0x00, 0x00,
  0x02, 0x00, 0x00, 0x00, 0x40, 0x00, 0x00, 0x00, 0x40, 0x00, 0x00, 0x00,
  0x62, 0xfa, 0xff, 0xff, 0x00, 0x00, 0x00, 0x01, 0x14, 0x00, 0x00, 0x00,
  0x24, 0x03, 0x00, 0x00, 0x08, 0x00, 0x00, 0x00, 0x00, 0x00, 0x00, 0x02,
  0x30, 0x03, 0x00, 0x00, 0xe4, 0xf9, 0xff, 0xff, 0x08, 0x00, 0x00, 0x00,
  0x08, 0x02, 0x00, 0x00, 0x40, 0x00, 0x00, 0x00, 0x00, 0x00, 0x00, 0x00,
  0x00, 0x00, 0x00, 0x00, 0x00, 0x00, 0x00, 0x00, 0x00, 0x00, 0x00, 0x00,
  0x00, 0x00, 0x00, 0x00, 0x00, 0x00, 0x00, 0x00, 0x00, 0x00, 0x00, 0x00,
  0x00, 0x00, 0x00, 0x00, 0x00, 0x00, 0x00, 0x00, 0x00, 0x00, 0x00, 0x00,
  0x00, 0x00, 0x00, 0x00, 0x00, 0x00, 0x00, 0x00, 0x00, 0x00, 0x00, 0x00,
  0x00, 0x00, 0x00, 0x00, 0x00, 0x00, 0x00, 0x00, 0x00, 0x00, 0x00, 0x00,
  0x00, 0x00, 0x00, 0x00, 0x00, 0x00, 0x00, 0x00, 0x00, 0x00, 0x00, 0x00,
  0x00, 0x00, 0x00, 0x00, 0x00, 0x00, 0x00, 0x00, 0x00, 0x00, 0x00, 0x00,
  0x00, 0x00, 0x00, 0x00, 0x00, 0x00, 0x00, 0x00, 0x00, 0x00, 0x00, 0x00,
  0x00, 0x00, 0x00, 0x00, 0x00, 0x00, 0x00, 0x00, 0x00, 0x00, 0x00, 0x00,
  0x00, 0x00, 0x00, 0x00, 0x00, 0x00, 0x00, 0x00, 0x00, 0x00, 0x00, 0x00,
  0x00, 0x00, 0x00, 0x00, 0x00, 0x00, 0x00, 0x00, 0x00, 0x00, 0x00, 0x00,
  0x00, 0x00, 0x00, 0x00, 0x00, 0x00, 0x00, 0x00, 0x00, 0x00, 0x00, 0x00,
  0x00, 0x00, 0x00, 0x00, 0x00, 0x00, 0x00, 0x00, 0x00, 0x00, 0x00, 0x00,
  0x00, 0x00, 0x00, 0x00, 0x00, 0x00, 0x00, 0x00, 0x00, 0x00, 0x00, 0x00,
  0x00, 0x00, 0x00, 0x00, 0x00, 0x00, 0x00, 0x00, 0x00, 0x00, 0x00, 0x00,
  0x00, 0x00, 0x00, 0x00, 0x00, 0x00, 0x00, 0x00, 0x00, 0x00, 0x00, 0x00,
  0x00, 0x00, 0x00, 0x00, 0x00, 0x00, 0x00, 0x00, 0x00, 0x00, 0x00, 0x00,
  0x00, 0x00, 0x00, 0x00, 0x00, 0x00, 0x00, 0x00, 0x00, 0x00, 0x00, 0x00,
  0x00, 0x00, 0x00, 0x00, 0x00, 0x00, 0x00, 0x00, 0x00, 0x00, 0x00, 0x00,
  0x00, 0x00, 0x00, 0x00, 0x00, 0x00, 0x00, 0x00, 0x00, 0x00, 0x00, 0x00,
  0x00, 0x00, 0x00, 0x00, 0x00, 0x00, 0x00, 0x00, 0x00, 0x00, 0x00, 0x00,
  0x00, 0x00, 0x00, 0x00, 0x00, 0x00, 0x00, 0x00, 0x00, 0x00, 0x00, 0x00,
  0x00, 0x00, 0x00, 0x00, 0x00, 0x00, 0x00, 0x00, 0x00, 0x00, 0x00, 0x00,
  0x00, 0x00, 0x00, 0x00, 0x00, 0x00, 0x00, 0x00, 0x00, 0x00, 0x00, 0x00,
  0x00, 0x00, 0x00, 0x00, 0x00, 0x00, 0x00, 0x00, 0x00, 0x00, 0x00, 0x00,
  0x00, 0x00, 0x00, 0x00, 0x00, 0x00, 0x00, 0x00, 0x00, 0x00, 0x00, 0x00,
  0x00, 0x00, 0x00, 0x00, 0x00, 0x00, 0x00, 0x00, 0x00, 0x00, 0x00, 0x00,
  0x00, 0x00, 0x00, 0x00, 0x00, 0x00, 0x00, 0x00, 0x00, 0x00, 0x00, 0x00,
  0x00, 0x00, 0x00, 0x00, 0x00, 0x00, 0x00, 0x00, 0x00, 0x00, 0x00, 0x00,
  0x00, 0x00, 0x00, 0x00, 0x00, 0x00, 0x00, 0x00, 0x00, 0x00, 0x00, 0x00,
  0x00, 0x00, 0x00, 0x00, 0x00, 0x00, 0x00, 0x00, 0x00, 0x00, 0x00, 0x00,
  0x00, 0x00, 0x00, 0x00, 0x00, 0x00, 0x00, 0x00, 0x00, 0x00, 0x00, 0x00,
  0x00, 0x00, 0x00, 0x00, 0x00, 0x00, 0x00, 0x00, 0x00, 0x00, 0x00, 0x00,
  0x00, 0x00, 0x00, 0x00, 0x00, 0x00, 0x00, 0x00, 0x00, 0x00, 0x00, 0x00,
  0x00, 0x00, 0x00, 0x00, 0x00, 0x00, 0x00, 0x00, 0x00, 0x00, 0x00, 0x00,
  0x00, 0x00, 0x00, 0x00, 0x00, 0x00, 0x00, 0x00, 0x00, 0x00, 0x00, 0x00,
  0x00, 0x00, 0x00, 0x00, 0x00, 0x00, 0x00, 0x00, 0x00, 0x00, 0x00, 0x00,
  0x00, 0x00, 0x00, 0x00, 0x00, 0x00, 0x00, 0x00, 0x00, 0x00, 0x00, 0x00,
  0x00, 0x00, 0x00, 0x00, 0x00, 0x00, 0x00, 0x00, 0x00, 0x00, 0x00, 0x00,
  0x00, 0x00, 0x00, 0x00, 0x00, 0x00, 0x00, 0x00, 0x00, 0x00, 0x00, 0x00,
  0x00, 0x00, 0x00, 0x00, 0x00, 0x00, 0x00, 0x00, 0x00, 0x00, 0x00, 0x00,
  0x00, 0x00, 0x00, 0x00, 0x00, 0x00, 0x00, 0x00, 0x00, 0x00, 0x00, 0x00,
  0x00, 0x00, 0x00, 0x00, 0x40, 0x00, 0x00, 0x00, 0xa8, 0x72, 0x03, 0x39,
  0xe3, 0x48, 0x9a, 0x38, 0x9f, 0x1c, 0x45, 0x37, 0x0c, 0xdd, 0x82, 0x38,
  0x1d, 0xcf, 0xe4, 0x37, 0x0b, 0x1b, 0xfd, 0x38, 0x53, 0xba, 0x6a, 0x38,
  0x9e, 0xfd, 0x3c, 0x37, 0x9a, 0xf6, 0x01, 0x39, 0xaf, 0xc1, 0xf8, 0x38,
  0x78, 0x7e, 0x2e, 0x38, 0xd1, 0xa5, 0x56, 0x37, 0x5f, 0x60, 0x3f, 0x39,
  0x99, 0x6e, 0x83, 0x38, 0x36, 0x3f, 0x91, 0x38, 0xc9, 0x31, 0x65, 0x38,
  0xbf, 0x84, 0xd2, 0x37, 0x58, 0xa5, 0x2d, 0x37, 0x88, 0xf9, 0xe0, 0x38,
  0xb6, 0xa0, 0xad, 0x38, 0xe3, 0x13, 0x31, 0x37, 0x5f, 0x58, 0xe7, 0x37,
  0x99, 0xf7, 0x5a, 0x39, 0xbd, 0x8a, 0x21, 0x39, 0xeb, 0xba, 0xfb, 0x38,
  0x6f, 0xd1, 0x8b, 0x38, 0x84, 0xfb, 0x91, 0x38, 0x90, 0xd4, 0xf1, 0x38,
  0x7d, 0xcc, 0x0f, 0x38, 0x5a, 0x38, 0x59, 0x38, 0x55, 0x43, 0x78, 0x38,
  0x2a, 0x39, 0xe4, 0x38, 0xdc, 0x59, 0x5a, 0x37, 0xad, 0x4b, 0x99, 0x38,
  0x81, 0x1b, 0x3a, 0x39, 0x65, 0xa7, 0x40, 0x39, 0x99, 0xe1, 0x0b, 0x39,
  0x11, 0x6e, 0x45, 0x37, 0xce, 0xca, 0xd2, 0x38, 0x30, 0x81, 0x50, 0x37,
  0x48, 0xb0, 0x94, 0x39, 0x94, 0x1d, 0xdd, 0x38, 0x70, 0x61, 0x9e, 0x38,
  0xaa, 0x66, 0x19, 0x39, 0x7e, 0x1b, 0x51, 0x39, 0x6a, 0x74, 0x82, 0x38,
  0x67, 0x0f, 0x54, 0x39, 0x7f, 0x67, 0x3e, 0x39, 0xbf, 0x4b, 0x66, 0x38,
  0xaa, 0xb0, 0xca, 0x38, 0x01, 0x75, 0x93, 0x38, 0xfb, 0xb8, 0x33, 0x37,
  0x2b, 0x44, 0xe0, 0x39, 0xa9, 0xd3, 0x1b, 0x38, 0xb0, 0xc2, 0x40, 0x39,
  0x90, 0x6c, 0x9f, 0x38, 0xb3, 0xe7, 0x1b, 0x39, 0x10, 0xa0, 0x90, 0x38,
  0xfc, 0x27, 0xcd, 0x39, 0x7c, 0x29, 0x37, 0x39, 0xc0, 0xc0, 0x53, 0x37,
  0xac, 0x60, 0x4c, 0x37, 0x6e, 0x8b, 0x11, 0x39, 0xe2, 0x2f, 0xdb, 0x38,
  0x12, 0x00, 0x00, 0x00, 0x74, 0x66, 0x6c, 0x2e, 0x70, 0x73, 0x65, 0x75,
  0x64, 0x6f, 0x5f, 0x71, 0x63, 0x6f, 0x6e, 0x73, 0x74, 0x32, 0x00, 0x00,
  0x01, 0x00, 0x00, 0x00, 0x40, 0x00, 0x00, 0x00, 0xb2, 0xfd, 0xff, 0xff,
  0x00, 0x00, 0x00, 0x01, 0x14, 0x00, 0x00, 0x00, 0xa0, 0x00, 0x00, 0x00,
  0x07, 0x00, 0x00, 0x00, 0x00, 0x00, 0x00, 0x09, 0xac, 0x00, 0x00, 0x00,
  0x34, 0xfd, 0xff, 0xff, 0x08, 0x00, 0x00, 0x00, 0x5c, 0x00, 0x00, 0x00,
  0x0a, 0x00, 0x00, 0x00, 0x00, 0x00, 0x00, 0x00, 0x00, 0x00, 0x00, 0x00,
  0x00, 0x00, 0x00, 0x00, 0x00, 0x00, 0x00, 0x00, 0x00, 0x00, 0x00, 0x00,
  0x00, 0x00, 0x00, 0x00, 0x00, 0x00, 0x00, 0x00, 0x00, 0x00, 0x00, 0x00,
  0x00, 0x00, 0x00, 0x00, 0x00, 0x00, 0x00, 0x00, 0x00, 0x00, 0x00, 0x00,
  0x00, 0x00, 0x00, 0x00, 0x00, 0x00, 0x00, 0x00, 0x00, 0x00, 0x00, 0x00,
  0x00, 0x00, 0x00, 0x00, 0x00, 0x00, 0x00, 0x00, 0x00, 0x00, 0x00, 0x00,
  0x00, 0x00, 0x00, 0x00, 0x00, 0x00, 0x00, 0x00, 0x00, 0x00, 0x00, 0x00,
  0x00, 0x00, 0x00, 0x00, 0x0a, 0x00, 0x00, 0x00, 0xd2, 0xec, 0xa6, 0x3d,
  0xdb, 0xc7, 0x88, 0x3d, 0x26, 0xfb, 0x9a, 0x3d, 0x5b, 0xa5, 0xd2, 0x3c,
  0xc5, 0x0e, 0x18, 0x3c, 0x3b, 0x73, 0x70, 0x3d, 0xed, 0x5b, 0x55, 0x3d,
  0xa3, 0x51, 0x1d, 0x3d, 0xe9, 0xdb, 0xaf, 0x3c, 0x10, 0xe9, 0x03, 0x3d,
  0x12, 0x00, 0x00, 0x00, 0x74, 0x66, 0x6c, 0x2e, 0x70, 0x73, 0x65, 0x75,
  0x64, 0x6f, 0x5f, 0x71, 0x63, 0x6f, 0x6e, 0x73, 0x74, 0x31, 0x00, 0x00,
  0x02, 0x00, 0x00, 0x00, 0x0a, 0x00, 0x00, 0x00, 0x40, 0x00, 0x00, 0x00,
  0x82, 0xfe, 0xff, 0xff, 0x00, 0x00, 0x00, 0x01, 0x14, 0x00, 0x00, 0x00,
  0xa0, 0x00, 0x00, 0x00, 0x06, 0x00, 0x00, 0x00, 0x00, 0x00, 0x00, 0x02,
  0xac, 0x00, 0x00, 0x00, 0x04, 0xfe, 0xff, 0xff, 0x08, 0x00, 0x00, 0x00,
  0x5c, 0x00, 0x00, 0x00, 0x0a, 0x00, 0x00, 0x00, 0x00, 0x00, 0x00, 0x00,
  0x00, 0x00, 0x00, 0x00, 0x00, 0x00, 0x00, 0x00, 0x00, 0x00, 0x00, 0x00,
  0x00, 0x00, 0x00, 0x00, 0x00, 0x00, 0x00, 0x00, 0x00, 0x00, 0x00, 0x00,
  0x00, 0x00, 0x00, 0x00, 0x00, 0x00, 0x00, 0x00, 0x00, 0x00, 0x00, 0x00,
  0x00, 0x00, 0x00, 0x00, 0x00, 0x00, 0x00, 0x00, 0x00, 0x00, 0x00, 0x00,
  0x00, 0x00, 0x00, 0x00, 0x00, 0x00, 0x00, 0x00, 0x00, 0x00, 0x00, 0x00,
  0x00, 0x00, 0x00, 0x00, 0x00, 0x00, 0x00, 0x00, 0x00, 0x00, 0x00, 0x00,
  0x00, 0x00, 0x00, 0x00, 0x00, 0x00, 0x00, 0x00, 0x0a, 0x00, 0x00, 0x00,
  0x0e, 0xd2, 0xa3, 0x3a, 0x9d, 0x3c, 0x86, 0x3a, 0x40, 0x19, 0x98, 0x3a,
  0x6d, 0xba, 0xce, 0x39, 0xca, 0x3a, 0x15, 0x39, 0x65, 0xfa, 0x6b, 0x3a,
  0x14, 0x64, 0x51, 0x3a, 0x9c, 0x64, 0x1a, 0x3a, 0x9c, 0x96, 0xac, 0x39,
  0x02, 0x75, 0x01, 0x3a, 0x11, 0x00, 0x00, 0x00, 0x74, 0x66, 0x6c, 0x2e,
  0x70, 0x73, 0x65, 0x75, 0x64, 0x6f, 0x5f, 0x71, 0x63, 0x6f, 0x6e, 0x73,
  0x74, 0x00, 0x00, 0x00, 0x01, 0x00, 0x00, 0x00, 0x0a, 0x00, 0x00, 0x00,
  0x4e, 0xff, 0xff, 0xff, 0x00, 0x00, 0x00, 0x01, 0x14, 0x00, 0x00, 0x00,
  0x14, 0x00, 0x00, 0x00, 0x05, 0x00, 0x00, 0x00, 0x00, 0x00, 0x00, 0x02,
  0x1c, 0x00, 0x00, 0x00, 0x38, 0xff, 0xff, 0xff, 0x0f, 0x00, 0x00, 0x00,
  0x61, 0x72, 0x69, 0x74, 0x68, 0x2e, 0x63, 0x6f, 0x6e, 0x73, 0x74, 0x61,
  0x6e, 0x74, 0x33, 0x00, 0x01, 0x00, 0x00, 0x00, 0x02, 0x00, 0x00, 0x00,
  0x8a, 0xff, 0xff, 0xff, 0x00, 0x00, 0x00, 0x01, 0x14, 0x00, 0x00, 0x00,
  0x14, 0x00, 0x00, 0x00, 0x04, 0x00, 0x00, 0x00, 0x00, 0x00, 0x00, 0x02,
  0x1c, 0x00, 0x00, 0x00, 0x74, 0xff, 0xff, 0xff, 0x0f, 0x00, 0x00, 0x00,
  0x61, 0x72, 0x69, 0x74, 0x68, 0x2e, 0x63, 0x6f, 0x6e, 0x73, 0x74, 0x61,
  0x6e, 0x74, 0x32, 0x00, 0x00, 0x00, 0x00, 0x00, 0xc2, 0xff, 0xff, 0xff,
  0x00, 0x00, 0x00, 0x01, 0x14, 0x00, 0x00, 0x00, 0x14, 0x00, 0x00, 0x00,
  0x03, 0x00, 0x00, 0x00, 0x00, 0x00, 0x00, 0x02, 0x1c, 0x00, 0x00, 0x00,
  0xac, 0xff, 0xff, 0xff, 0x0f, 0x00, 0x00, 0x00, 0x61, 0x72, 0x69, 0x74,
  0x68, 0x2e, 0x63, 0x6f, 0x6e, 0x73, 0x74, 0x61, 0x6e, 0x74, 0x31, 0x00,
  0x01, 0x00, 0x00, 0x00, 0x03, 0x00, 0x00, 0x00, 0x00, 0x00, 0x16, 0x00,
  0x1c, 0x00, 0x18, 0x00, 0x17, 0x00, 0x10, 0x00, 0x0c, 0x00, 0x08, 0x00,
  0x00, 0x00, 0x00, 0x00, 0x00, 0x00, 0x07, 0x00, 0x16, 0x00, 0x00, 0x00,
  0x00, 0x00, 0x00, 0x01, 0x18, 0x00, 0x00, 0x00, 0x18, 0x00, 0x00, 0x00,
  0x02, 0x00, 0x00, 0x00, 0x00, 0x00, 0x00, 0x02, 0x20, 0x00, 0x00, 0x00,
  0x04, 0x00, 0x04, 0x00, 0x04, 0x00, 0x00, 0x00, 0x0e, 0x00, 0x00, 0x00,
  0x61, 0x72, 0x69, 0x74, 0x68, 0x2e, 0x63, 0x6f, 0x6e, 0x73, 0x74, 0x61,
  0x6e, 0x74, 0x00, 0x00, 0x00, 0x00, 0x00, 0x00, 0x00, 0x00, 0x16, 0x00,
  0x20, 0x00, 0x1c, 0x00, 0x1b, 0x00, 0x14, 0x00, 0x10, 0x00, 0x0c, 0x00,
  0x00, 0x00, 0x00, 0x00, 0x08, 0x00, 0x07, 0x00, 0x16, 0x00, 0x00, 0x00,
  0x00, 0x00, 0x00, 0x01, 0x18, 0x00, 0x00, 0x00, 0x30, 0x00, 0x00, 0x00,
  0x4c, 0x00, 0x00, 0x00, 0x01, 0x00, 0x00, 0x00, 0x00, 0x00, 0x00, 0x09,
  0x64, 0x00, 0x00, 0x00, 0x03, 0x00, 0x00, 0x00, 0xff, 0xff, 0xff, 0xff,
  0x06, 0x00, 0x00, 0x00, 0x01, 0x00, 0x00, 0x00, 0x0c, 0x00, 0x0c, 0x00,
  0x00, 0x00, 0x00, 0x00, 0x08, 0x00, 0x04, 0x00, 0x0c, 0x00, 0x00, 0x00,
  0x08, 0x00, 0x00, 0x00, 0x10, 0x00, 0x00, 0x00, 0x01, 0x00, 0x00, 0x00,
  0xb2, 0xff, 0xff, 0xff, 0xff, 0xff, 0xff, 0xff, 0x01, 0x00, 0x00, 0x00,
  0x7e, 0xf9, 0x1f, 0x3c, 0x1e, 0x00, 0x00, 0x00, 0x73, 0x65, 0x72, 0x76,
  0x69, 0x6e, 0x67, 0x5f, 0x64, 0x65, 0x66, 0x61, 0x75, 0x6c, 0x74, 0x5f,
  0x6b, 0x65, 0x72, 0x61, 0x73, 0x5f, 0x74, 0x65, 0x6e, 0x73, 0x6f, 0x72,
  0x3a, 0x30, 0x00, 0x00, 0x03, 0x00, 0x00, 0x00, 0x01, 0x00, 0x00, 0x00,
  0x06, 0x00, 0x00, 0x00, 0x01, 0x00, 0x00, 0x00, 0x06, 0x00, 0x00, 0x00,
  0x7c, 0x00, 0x00, 0x00, 0x5c, 0x00, 0x00, 0x00, 0x40, 0x00, 0x00, 0x00,
  0x2c, 0x00, 0x00, 0x00, 0x18, 0x00, 0x00, 0x00, 0x04, 0x00, 0x00, 0x00,
  0xc4, 0xff, 0xff, 0xff, 0x19, 0x00, 0x00, 0x00, 0x02, 0x00, 0x00, 0x00,
  0x00, 0x00, 0x00, 0x19, 0xd4, 0xff, 0xff, 0xff, 0x09, 0x00, 0x00, 0x00,
  0x04, 0x00, 0x00, 0x00, 0x00, 0x00, 0x00, 0x09, 0xe4, 0xff, 0xff, 0xff,
  0x11, 0x00, 0x00, 0x00, 0x02, 0x00, 0x00, 0x00, 0x00, 0x00, 0x00, 0x11,
  0xd8, 0xff, 0xff, 0xff, 0x16, 0x00, 0x00, 0x00, 0x00, 0x00, 0x00, 0x16,
  0x0c, 0x00, 0x10, 0x00, 0x0f, 0x00, 0x00, 0x00, 0x08, 0x00, 0x04, 0x00,
  0x0c, 0x00, 0x00, 0x00, 0x03, 0x00, 0x00, 0x00, 0x03, 0x00, 0x00, 0x00,
  0x00, 0x00, 0x00, 0x03, 0x0c, 0x00, 0x0c, 0x00, 0x0b, 0x00, 0x00, 0x00,
  0x00, 0x00, 0x04, 0x00, 0x0c, 0x00, 0x00, 0x00, 0x46, 0x00, 0x00, 0x00,
  0x00, 0x00, 0x00, 0x46,
};
const unsigned int cnn_model_len = 11920;
